{
  "version": "1.0",
  "truncation": null,
  "padding": null,
  "added_tokens": [
    {
      "id": 0,
      "content": "<pad>",
      "single_word": false,
      "lstrip": false,
      "rstrip": false,
      "normalized": false,
      "special": true
    },
    {
      "id": 1,
      "content": "<unk>",
      "single_word": false,
      "lstrip": false,
      "rstrip": false,
      "normalized": false,
      "special": true
    },
    {
      "id": 2,
      "content": "<bos>",
      "single_word": false,
      "lstrip": false,
      "rstrip": false,
      "normalized": false,
      "special": true
    },
    {
      "id": 3,
      "content": "<eos>",
      "single_word": false,
      "lstrip": false,
      "rstrip": false,
      "normalized": false,
      "special": true
    },
    {
      "id": 4,
      "content": "<user>",
      "single_word": false,
      "lstrip": false,
      "rstrip": false,
      "normalized": false,
      "special": true
    },
    {
      "id": 5,
      "content": "<assistant>",
      "single_word": false,
      "lstrip": false,
      "rstrip": false,
      "normalized": false,
      "special": true
    }
  ],
  "normalizer": null,
  "pre_tokenizer": {
    "type": "ByteLevel",
    "add_prefix_space": false,
    "trim_offsets": true,
    "use_regex": true
  },
  "post_processor": null,
  "decoder": {
    "type": "ByteLevel",
    "add_prefix_space": true,
    "trim_offsets": true,
    "use_regex": true
  },
  "model": {
    "type": "BPE",
    "dropout": null,
    "unk_token": "<unk>",
    "continuing_subword_prefix": null,
    "end_of_word_suffix": null,
    "fuse_unk": false,
    "byte_fallback": false,
    "ignore_merges": false,
    "vocab": {
      "<pad>": 0,
      "<unk>": 1,
      "<bos>": 2,
      "<eos>": 3,
      "<user>": 4,
      "<assistant>": 5,
      "!": 6,
      "\"": 7,
      "$": 8,
      "&": 9,
      "'": 10,
      ",": 11,
      "-": 12,
      ".": 13,
      "0": 14,
      "1": 15,
      "2": 16,
      "3": 17,
      "4": 18,
      "5": 19,
      "6": 20,
      "7": 21,
      "8": 22,
      "9": 23,
      ":": 24,
      ";": 25,
      "?": 26,
      "A": 27,
      "B": 28,
      "C": 29,
      "D": 30,
      "E": 31,
      "F": 32,
      "G": 33,
      "H": 34,
      "I": 35,
      "J": 36,
      "K": 37,
      "L": 38,
      "M": 39,
      "N": 40,
      "O": 41,
      "P": 42,
      "Q": 43,
      "R": 44,
      "S": 45,
      "T": 46,
      "U": 47,
      "V": 48,
      "W": 49,
      "X": 50,
      "Y": 51,
      "Z": 52,
      "a": 53,
      "b": 54,
      "c": 55,
      "d": 56,
      "e": 57,
      "f": 58,
      "g": 59,
      "h": 60,
      "i": 61,
      "j": 62,
      "k": 63,
      "l": 64,
      "m": 65,
      "n": 66,
      "o": 67,
      "p": 68,
      "q": 69,
      "r": 70,
      "s": 71,
      "t": 72,
      "u": 73,
      "v": 74,
      "w": 75,
      "x": 76,
      "y": 77,
      "z": 78,
      "¡": 79,
      "¢": 80,
      "¦": 81,
      "©": 82,
      "«": 83,
      "¬": 84,
      "±": 85,
      "³": 86,
      "»": 87,
      "Â": 88,
      "Ã": 89,
      "Å": 90,
      "Ë": 91,
      "â": 92,
      "Ċ": 93,
      "Ġ": 94,
      "Ģ": 95,
      "Ĥ": 96,
      "ĥ": 97,
      "Ħ": 98,
      "ĵ": 99,
      "ľ": 100,
      "Ŀ": 101,
      "he": 102,
      "Ġt": 103,
      "Ġa": 104,
      "Ġs": 105,
      "Ġw": 106,
      "nd": 107,
      "Ġthe": 108,
      "ed": 109,
      "in": 110,
      "Ġand": 111,
      "Ġb": 112,
      "Ġto": 113,
      "Ġwa": 114,
      "Ġh": 115,
      "re": 116,
      "it": 117,
      "Ġf": 118,
      "ou": 119,
      "er": 120,
      "Ġl": 121,
      "Ġhe": 122,
      "Ġwas": 123,
      "Ġc": 124,
      "Ġd": 125,
      "Ġp": 126,
      "Ġm": 127,
      "Ġo": 128,
      "ing": 129,
      "om": 130,
      "ar": 131,
      "ay": 132,
      "Ġg": 133,
      "is": 134,
      "The": 135,
      "id": 136,
      "at": 137,
      "ll": 138,
      "en": 139,
      "Ġsa": 140,
      "ne": 141,
      "Ġha": 142,
      "im": 143,
      "le": 144,
      "ĠS": 145,
      "an": 146,
      "or": 147,
      "Ġit": 148,
      "Ġth": 149,
      "ĠThe": 150,
      "et": 151,
      "ĠH": 152,
      "il": 153,
      "on": 154,
      "Ġher": 155,
      "ver": 156,
      "ir": 157,
      "Ġin": 158,
      "Ġe": 159,
      "ĠHe": 160,
      "Ġn": 161,
      "ot": 162,
      "ld": 163,
      "ĠShe": 164,
      "Ġu": 165,
      "ut": 166,
      "ow": 167,
      "Ġbe": 168,
      "ck": 169,
      "ce": 170,
      "Ġshe": 171,
      "ig": 172,
      "Ġsaid": 173,
      "Ġst": 174,
      "Ġso": 175,
      "oo": 176,
      "pp": 177,
      "Ġr": 178,
      "Ġ\"": 179,
      "am": 180,
      "Ġof": 181,
      "ke": 182,
      "Ġy": 183,
      "ve": 184,
      "st": 185,
      "ked": 186,
      "ith": 187,
      "very": 188,
      "Ġhis": 189,
      "Ġwith": 190,
      "Ġday": 191,
      "ri": 192,
      "ĠI": 193,
      "nt": 194,
      "Ġup": 195,
      "Ġpl": 196,
      "ad": 197,
      "Ġthat": 198,
      "Ġhad": 199,
      "Ġyou": 200,
      "ĠThey": 201,
      "ould": 202,
      "itt": 203,
      "ily": 204,
      "el": 205,
      "ent": 206,
      "ĠT": 207,
      "Ġon": 208,
      "Ġfor": 209,
      "es": 210,
      "Ġplay": 211,
      "ound": 212,
      "ittle": 213,
      "Ġthey": 214,
      "ĠĊ": 215,
      "un": 216,
      "Ġwe": 217,
      "out": 218,
      "my": 219,
      "ĠL": 220,
      "Ġlittle": 221,
      "'s": 222,
      "ly": 223,
      "ch": 224,
      "Ġmom": 225,
      "Ġhapp": 226,
      "ime": 227,
      "her": 228,
      "Ġthere": 229,
      "Ġtime": 230,
      "all": 231,
      "Ġvery": 232,
      "Ġsm": 233,
      "Ġwh": 234,
      "Ġsh": 235,
      "ht": 236,
      "Ġne": 237,
      "Ġre": 238,
      "Ġli": 239,
      "al": 240,
      "ome": 241,
      "Ġwant": 242,
      "ĠB": 243,
      "se": 244,
      "ack": 245,
      "end": 246,
      "Ġdo": 247,
      "Ġk": 248,
      "Ġas": 249,
      "On": 250,
      "Ġhappy": 251,
      "Ġbig": 252,
      "Ġan": 253,
      "Ġbut": 254,
      "Once": 255,
      "ra": 256,
      "One": 257,
      "Ġsaw": 258,
      "riend": 259,
      "ved": 260,
      "Ġfriend": 261,
      "Ġloo": 262,
      "ec": 263,
      "'t": 264,
      "ore": 265,
      "irl": 266,
      "ake": 267,
      "ug": 268,
      "ide": 269,
      "Ġgirl": 270,
      "ĠLily": 271,
      "ter": 272,
      "ĠM": 273,
      "Ġbo": 274,
      "ĠJ": 275,
      "Ġex": 276,
      "ĠIt": 277,
      "Ġwere": 278,
      "Ġupon": 279,
      "Ġhim": 280,
      "ill": 281,
      "ry": 282,
      "ard": 283,
      "Ġsp": 284,
      "Ġout": 285,
      "Ġgo": 286,
      "Ġj": 287,
      "!\"": 288,
      "Ġnot": 289,
      "Ġlo": 290,
      ".\"": 291,
      "Ġwanted": 292,
      "fu": 293,
      "Ġcould": 294,
      "Ġar": 295,
      "way": 296,
      "hen": 297,
      "Ġtoo": 298,
      "hing": 299,
      "ind": 300,
      "Ġse": 301,
      "ur": 302,
      "Ã¢": 303,
      "âĤ": 304,
      "âĤ¬": 305,
      "Ġis": 306,
      "art": 307,
      "Ġall": 308,
      "ic": 309,
      "ain": 310,
      "ĠA": 311,
      "ĠTim": 312,
      "Ġat": 313,
      "hed": 314,
      "Ġwent": 315,
      "um": 316,
      "iled": 317,
      "ful": 318,
      "ight": 319,
      "rom": 320,
      "Ġsmiled": 321,
      "Ġaround": 322,
      "lp": 323,
      "Ġfriends": 324,
      "Ġnam": 325,
      "Ġthem": 326,
      "oug": 327,
      "Ġhelp": 328,
      "Ġback": 329,
      "ood": 330,
      "Ġcl": 331,
      "omet": 332,
      "Ġdid": 333,
      "ark": 334,
      "ss": 335,
      "Ġasked": 336,
      "Ġfun": 337,
      "Ġca": 338,
      "Ġhave": 339,
      "?\"": 340,
      "Ġsomet": 341,
      "Ġlooked": 342,
      "Ġboy": 343,
      "Ġcan": 344,
      "Ġstart": 345,
      "side": 346,
      "Ġal": 347,
      "Ġtheir": 348,
      "ure": 349,
      "one": 350,
      "Ġle": 351,
      "elt": 352,
      "Ġfe": 353,
      "ick": 354,
      "Ġwould": 355,
      "get": 356,
      "Ġnamed": 357,
      "dd": 358,
      "Ġfelt": 359,
      "ro": 360,
      "ited": 361,
      "ree": 362,
      "Ġexc": 363,
      "ĠOne": 364,
      "ame": 365,
      "ie": 366,
      "Ġloved": 367,
      "Ġno": 368,
      "Ġsomething": 369,
      "king": 370,
      "Ġman": 371,
      "ong": 372,
      "Ġwor": 373,
      "Ġstarted": 374,
      "ice": 375,
      "Ġsc": 376,
      "ird": 377,
      "Ġare": 378,
      "Ġlike": 379,
      "op": 380,
      "gether": 381,
      "Ġsome": 382,
      "Ġbird": 383,
      "Ġag": 384,
      "Ġfa": 385,
      "Ġro": 386,
      "Ġme": 387,
      "Ġsee": 388,
      "pped": 389,
      "ĠE": 390,
      "ĠW": 391,
      "ag": 392,
      "ade": 393,
      "Ġtogether": 394,
      "Ġaway": 395,
      "Ġexcited": 396,
      "pl": 397,
      "own": 398,
      "Ġran": 399,
      "ĠTimmy": 400,
      "oud": 401,
      "ings": 402,
      "Ġwhat": 403,
      "Ġthen": 404,
      "ared": 405,
      "Ġmu": 406,
      "ally": 407,
      "ble": 408,
      "Ġtoy": 409,
      "Ġmake": 410,
      "if": 411,
      "Ġhome": 412,
      "qu": 413,
      "Ġwal": 414,
      "hat": 415,
      "Ġla": 416,
      "Ġmade": 417,
      "ĠBen": 418,
      "Ġfound": 419,
      "Ġfrom": 420,
      "Ġch": 421,
      "as": 422,
      "ell": 423,
      "Ġwhen": 424,
      "Ġdec": 425,
      "You": 426,
      "Ġbr": 427,
      "Ġpark": 428,
      "Ġco": 429,
      "Ġwho": 430,
      "Ġagain": 431,
      "Ġnew": 432,
      "ought": 433,
      "ep": 434,
      "Ġot": 435,
      "ous": 436,
      "Ġget": 437,
      "ĠTom": 438,
      "Ġput": 439,
      "Ġevery": 440,
      "ĠBut": 441,
      ",\"": 442,
      "Ġplaying": 443,
      "Ġone": 444,
      "udd": 445,
      "Ġother": 446,
      "Ġsad": 447,
      "ided": 448,
      "Ġdecided": 449,
      "Ġold": 450,
      "Ġpr": 451,
      "Ġgot": 452,
      "Ġfl": 453,
      "ile": 454,
      "ny": 455,
      "bb": 456,
      "Ġv": 457,
      "ave": 458,
      "Ġcar": 459,
      "Ġhug": 460,
      "Ġbu": 461,
      "ach": 462,
      "Ġthings": 463,
      "ust": 464,
      "ried": 465,
      "eci": 466,
      "Ġgood": 467,
      "Ġthan": 468,
      "ouse": 469,
      "ĠD": 470,
      "Ġfind": 471,
      "udden": 472,
      "Ġsw": 473,
      "Ġdown": 474,
      "Ġbec": 475,
      "Ġfeel": 476,
      "Ġcame": 477,
      "ecial": 478,
      "Ġtree": 479,
      "Ġspecial": 480,
      "Ġsay": 481,
      "ways": 482,
      "Ġke": 483,
      "uddenly": 484,
      "Ġlot": 485,
      "Ġalways": 486,
      "Ġkn": 487,
      "Ġpo": 488,
      "nder": 489,
      "Ġab": 490,
      "ant": 491,
      "Ġbl": 492,
      "Ġkne": 493,
      "ched": 494,
      "ĠF": 495,
      "Ġthought": 496,
      "Ġint": 497,
      "Ġscared": 498,
      "Ġgr": 499,
      "ist": 500,
      "ite": 501,
      "Ġtake": 502,
      "Ġgra": 503,
      "ue": 504,
      "ge": 505,
      "our": 506,
      "Ġexpl": 507,
      "Ġcare": 508,
      "Ġabout": 509,
      "Ġtook": 510,
      "Ġdidn": 511,
      "ĠEvery": 512,
      "fe": 513,
      "ise": 514,
      "ened": 515,
      "ma": 516,
      "reat": 517,
      "Ġlaug": 518,
      "ook": 519,
      "Ġlook": 520,
      "Ġdad": 521,
      "Ġliked": 522,
      "Ġknew": 523,
      "Ġho": 524,
      "fter": 525,
      "Ġpa": 526,
      "uck": 527,
      "ob": 528,
      "Åĵ": 529,
      "Ġpe": 530,
      "Ġta": 531,
      "Ġoutside": 532,
      "ven": 533,
      "Ġtw": 534,
      "ers": 535,
      "ive": 536,
      "ĠYou": 537,
      "Ġmore": 538,
      "Ġsk": 539,
      "Ġcouldn": 540,
      "ĠJo": 541,
      "ned": 542,
      "Lily": 543,
      "Ġcat": 544,
      "Ġqu": 545,
      "Ġen": 546,
      "uc": 547,
      "Ġyour": 548,
      "Ġhow": 549,
      "lly": 550,
      "Ġmuch": 551,
      "Ġdog": 552,
      "ace": 553,
      "Ġnever": 554,
      "Ġsun": 555,
      "Ġmo": 556,
      "ged": 557,
      "Ġmy": 558,
      "ret": 559,
      "ĠJack": 560,
      "ĠÃ¢": 561,
      "Ġinto": 562,
      "Ġany": 563,
      "ion": 564,
      "Ġclo": 565,
      "Ġproud": 566,
      "us": 567,
      "hn": 568,
      "Ġshow": 569,
      "Ġover": 570,
      "Ġmommy": 571,
      "by": 572,
      "Ġthis": 573,
      "ough": 574,
      "Ġif": 575,
      "ara": 576,
      "Ġknow": 577,
      "ĠMom": 578,
      "ish": 579,
      "ax": 580,
      "pt": 581,
      "Ġlear": 582,
      "Ġheard": 583,
      "Ġstr": 584,
      "Ġinside": 585,
      "vent": 586,
      "Ġtr": 587,
      "au": 588,
      "Ġcall": 589,
      "ning": 590,
      "Ġhouse": 591,
      "oth": 592,
      "Ġad": 593,
      "Ġop": 594,
      "ear": 595,
      "ort": 596,
      "Ġfo": 597,
      "Ġoff": 598,
      "ĠSo": 599,
      "Ġhand": 600,
      "Ġtold": 601,
      "Ġwat": 602,
      "ild": 603,
      "Ġwill": 604,
      "Ġsmall": 605,
      "Ġjust": 606,
      "âĤ¬â": 607,
      "other": 608,
      "ump": 609,
      "Ġsays": 610,
      "Ġpick": 611,
      "Ġgave": 612,
      "Ġra": 613,
      "sel": 614,
      "here": 615,
      "ving": 616,
      "Ġball": 617,
      "Ġbea": 618,
      "ntil": 619,
      "Ġwater": 620,
      "But": 621,
      "ause": 622,
      "dy": 623,
      "na": 624,
      "Ġuntil": 625,
      "Ġlong": 626,
      "Ġcom": 627,
      "Ġrun": 628,
      "Ġlots": 629,
      "Ġtried": 630,
      "Ġtoys": 631,
      "Ġthanked": 632,
      "ate": 633,
      "oy": 634,
      "Ġtry": 635,
      "Ġbeaut": 636,
      "Ġbecause": 637,
      "Ħ¢": 638,
      "âĤ¬âĦ¢": 639,
      "Ġroom": 640,
      "ucy": 641,
      "etter": 642,
      "urp": 643,
      "Ġgard": 644,
      "Ġgarden": 645,
      "ady": 646,
      "ank": 647,
      "Ġeven": 648,
      "Ġplayed": 649,
      "They": 650,
      "Ġsl": 651,
      "ap": 652,
      "Ġcalled": 653,
      "Ġby": 654,
      "em": 655,
      "Ġeat": 656,
      "Ġbear": 657,
      "Ġlaughed": 658,
      "Ġway": 659,
      "Ġend": 660,
      "ty": 661,
      "ink": 662,
      "ane": 663,
      "ia": 664,
      "self": 665,
      "Ġneed": 666,
      "Ġbeauti": 667,
      "Ġbest": 668,
      "Ġbeautiful": 669,
      "Ġhugged": 670,
      "iz": 671,
      "ĠSam": 672,
      "ine": 673,
      "ered": 674,
      "Ġtwo": 675,
      "and": 676,
      "ct": 677,
      "sed": 678,
      "rent": 679,
      "Ġor": 680,
      "lew": 681,
      "Ġim": 682,
      "Ġsky": 683,
      "When": 684,
      "Ġflow": 685,
      "imal": 686,
      "Ġanimal": 687,
      "nna": 688,
      "ft": 689,
      "Ġexplore": 690,
      "ĠMax": 691,
      "Ġeach": 692,
      "ull": 693,
      "Ġlived": 694,
      "Ġwo": 695,
      "It": 696,
      "Ġpret": 697,
      "ĠHis": 698,
      "Ġbetter": 699,
      "rave": 700,
      "'m": 701,
      "Ġcu": 702,
      "ect": 703,
      "Ġfast": 704,
      "Ġfam": 705,
      "ess": 706,
      "He": 707,
      "Ġboth": 708,
      "Ġbox": 709,
      "Mom": 710,
      "Ġdon": 711,
      "Ġadvent": 712,
      "Ġnice": 713,
      "Ġkept": 714,
      "ĠHer": 715,
      "Ġdre": 716,
      "Ġkind": 717,
      "Ġjump": 718,
      "Ġche": 719,
      "urpr": 720,
      "ĠC": 721,
      "Ġmany": 722,
      "iny": 723,
      "fore": 724,
      "Ġsurpr": 725,
      "So": 726,
      "Yes": 727,
      "Ġhard": 728,
      "ĠP": 729,
      "ĠThen": 730,
      "Ġflew": 731,
      "Ġrem": 732,
      "Ġfin": 733,
      "Ġstay": 734,
      "Ġcome": 735,
      "Ġcle": 736,
      "Let": 737,
      "ĠLucy": 738,
      "Ġsmile": 739,
      "Ġsoon": 740,
      "Ġmum": 741,
      "What": 742,
      "Ġbrave": 743,
      "Ġfeeling": 744,
      "igh": 745,
      "Ġwalked": 746,
      "Ġfamily": 747,
      "Ġits": 748,
      "Ġgl": 749,
      "Ġfly": 750,
      "ised": 751,
      "Ġbefore": 752,
      "Ġsto": 753,
      "iced": 754,
      "Ġcol": 755,
      "ĠSara": 756,
      "led": 757,
      "Ġadventure": 758,
      "Ġstill": 759,
      "are": 760,
      "ĠFrom": 761,
      "Ġte": 762,
      "Ġfore": 763,
      "urt": 764,
      "ople": 765,
      "ĠAnd": 766,
      "Th": 767,
      "Ġcon": 768,
      "Ġplace": 769,
      "Ġlearned": 770,
      "Ġwalking": 771,
      "ool": 772,
      "orry": 773,
      "Ġfi": 774,
      "Ġimp": 775,
      "ied": 776,
      "olly": 777,
      "Ġcareful": 778,
      "ary": 779,
      "ĠSuddenly": 780,
      "Ġyear": 781,
      "Ġgoing": 782,
      "Ġow": 783,
      "ĠWhen": 784,
      "Ġunder": 785,
      "Ġanimals": 786,
      "ies": 787,
      "Ġlove": 788,
      "Ġloud": 789,
      "Ġnow": 790,
      "Ġnoticed": 791,
      "Ġfar": 792,
      "Ġquick": 793,
      "ip": 794,
      "Ġsafe": 795,
      "Ġstopped": 796,
      "Jo": 797,
      "gan": 798,
      "gry": 799,
      "maz": 800,
      "Ġpeople": 801,
      "Ġamaz": 802,
      "xt": 803,
      "ĠBob": 804,
      "That": 805,
      "Ġdel": 806,
      "illy": 807,
      "sh": 808,
      "bbit": 809,
      "Ġfr": 810,
      "Ġsorry": 811,
      "Tom": 812,
      "Ġthree": 813,
      "ase": 814,
      "ĠJohn": 815,
      "thing": 816,
      "ĠWe": 817,
      "ious": 818,
      "Ġdis": 819,
      "Ġide": 820,
      "Ġlist": 821,
      "Ġdan": 822,
      "Tim": 823,
      "joy": 824,
      "Ġlet": 825,
      "Ġquickly": 826,
      "ser": 827,
      "Ġey": 828,
      "Ġeveryone": 829,
      "dded": 830,
      "Suddenly": 831,
      "Ġrabbit": 832,
      "ished": 833,
      "Ġopened": 834,
      "Ġwind": 835,
      "Ġstor": 836,
      "ĠAnna": 837,
      "Ġma": 838,
      "Ġvo": 839,
      "Ġground": 840,
      "ting": 841,
      "Ġwar": 842,
      "Ġidea": 843,
      "Ġtow": 844,
      "ange": 845,
      "Ġlooking": 846,
      "Ġwhile": 847,
      "Ġde": 848,
      "Ġenjoy": 849,
      "Ġwonder": 850,
      "eet": 851,
      "Ġgreat": 852,
      "ĠG": 853,
      "Ġtre": 854,
      "Ġrepl": 855,
      "ught": 856,
      "Ġkeep": 857,
      "emb": 858,
      "Ġthr": 859,
      "hes": 860,
      "ummy": 861,
      "isy": 862,
      "Ġred": 863,
      "Ġever": 864,
      "age": 865,
      "Ġun": 866,
      "Ġwork": 867,
      "Ġdoor": 868,
      "ger": 869,
      "ted": 870,
      "Ġrememb": 871,
      "Ġshould": 872,
      "Ġnext": 873,
      "Ġsn": 874,
      "Ġchild": 875,
      "Ġbeen": 876,
      "Ġbright": 877,
      "Ġvoice": 878,
      "Ġpicked": 879,
      "ner": 880,
      "Ġreplied": 881,
      "Ġshiny": 882,
      "ĠJane": 883,
      "ĠN": 884,
      "Ġbed": 885,
      "bye": 886,
      "Ġtur": 887,
      "Ġeyes": 888,
      "ff": 889,
      "Ġmor": 890,
      "Ġwr": 891,
      "Ġwalk": 892,
      "hy": 893,
      "Ġreal": 894,
      "Ġjo": 895,
      "Ġbegan": 896,
      "lie": 897,
      "Ġafter": 898,
      "Ġface": 899,
      "Ġforest": 900,
      "Ġnear": 901,
      "Ġnodded": 902,
      "Ġgoodbye": 903,
      "Ġcloser": 904,
      "Ġdra": 905,
      "ĠDad": 906,
      "able": 907,
      "Ġcuri": 908,
      "Ġgive": 909,
      "Ġpain": 910,
      "Ġnoise": 911,
      "aisy": 912,
      "Ġsqu": 913,
      "Ġper": 914,
      "Ġhands": 915,
      "Ġapp": 916,
      "Ġgre": 917,
      "Ġclean": 918,
      "uch": 919,
      "Ġcry": 920,
      "Ġpic": 921,
      "ak": 922,
      "Ġwait": 923,
      "bbed": 924,
      "Ġwatched": 925,
      "Ġfood": 926,
      "Ġpretty": 927,
      "Ġright": 928,
      "Ġrock": 929,
      "Ġcurious": 930,
      "Ġfish": 931,
      "ĠMia": 932,
      "ĠAs": 933,
      "les": 934,
      "irst": 935,
      "Ġcolor": 936,
      "ĠJoe": 937,
      "Ġworld": 938,
      "Ġhurt": 939,
      "Ġdif": 940,
      "ng": 941,
      "John": 942,
      "Ġbad": 943,
      "Ġsound": 944,
      "imb": 945,
      "Ġstrong": 946,
      "Ġblue": 947,
      "day": 948,
      "Ġwatch": 949,
      "Ġbit": 950,
      "Ġshare": 951,
      "Ġclimb": 952,
      "ock": 953,
      "ired": 954,
      "Ġhopped": 955,
      "Ġmag": 956,
      "Ġtruck": 957,
      "Ġyell": 958,
      "Ġsure": 959,
      "ster": 960,
      "Ġleave": 961,
      "Ġbeing": 962,
      "Ġ-": 963,
      "Ġshout": 964,
      "Ġthrough": 965,
      "ĠEveryone": 966,
      "Ġbecame": 967,
      "oon": 968,
      "llow": 969,
      "Ġyears": 970,
      "Ġmouse": 971,
      "be": 972,
      "ture": 973,
      "ĠMommy": 974,
      "kay": 975,
      "Ġac": 976,
      "Ġstore": 977,
      "Ġseen": 978,
      "Ġdoll": 979,
      "Ġangry": 980,
      "Ġboat": 981,
      "No": 982,
      "Ġshowed": 983,
      "Ġbook": 984,
      "Ġhere": 985,
      "Ġpu": 986,
      "Ġcont": 987,
      "ached": 988,
      "Ġbutter": 989,
      "Ġimport": 990,
      "Ġnight": 991,
      "Ġflowers": 992,
      "ĠR": 993,
      "ĠDaisy": 994,
      "Ġwarm": 995,
      "Ġwhere": 996,
      "Ġwhy": 997,
      "Ġgrabbed": 998,
      "Ġtal": 999,
      "Ġdiffe": 1000,
      "ĠSp": 1001,
      "Ġreally": 1002,
      "Ġjumped": 1003,
      "Ġfollow": 1004,
      "Ġimportant": 1005,
      "Ġfill": 1006,
      "Ġhead": 1007,
      "fully": 1008,
      "Ġhigh": 1009,
      "Ġuse": 1010,
      "Ġready": 1011,
      "Ġhappened": 1012,
      "so": 1013,
      "Ġwaved": 1014,
      "ream": 1015,
      "Ġfirst": 1016,
      "ĠSue": 1017,
      "Ġparent": 1018,
      "Ġmagic": 1019,
      "Jack": 1020,
      "Ġdifferent": 1021,
      "Ġpat": 1022,
      "unny": 1023,
      "Thank": 1024,
      "leep": 1025,
      "Ġrain": 1026,
      "Ġname": 1027,
      "ized": 1028,
      "Ġpicture": 1029,
      "zy": 1030,
      "ount": 1031,
      "Ġalso": 1032,
      "ppy": 1033,
      "Ġbro": 1034,
      "Ġlisten": 1035,
      "\".": 1036,
      "Ġhaving": 1037,
      "Ġrunning": 1038,
      "Ġtired": 1039,
      "Ġste": 1040,
      "ssed": 1041,
      "ac": 1042,
      "ol": 1043,
      "Ġperf": 1044,
      "Ġparents": 1045,
      "Ġus": 1046,
      "itc": 1047,
      "ient": 1048,
      "Ġreached": 1049,
      "Ġhimself": 1050,
      "Ġgrass": 1051,
      "She": 1052,
      "Ġba": 1053,
      "Ġgame": 1054,
      "Ġtast": 1055,
      "Ġflower": 1056,
      "After": 1057,
      "Ġsweet": 1058,
      "mer": 1059,
      "Ġbug": 1060,
      "Ġrest": 1061,
      "Ġsurprise": 1062,
      "Ġwood": 1063,
      "Ġdelic": 1064,
      "Ġshouted": 1065,
      "Ġlady": 1066,
      "Ġdone": 1067,
      "Her": 1068,
      "lease": 1069,
      "Ġthing": 1070,
      "Ġcarefully": 1071,
      "ather": 1072,
      "Ġbutterf": 1073,
      "where": 1074,
      "Ġfro": 1075,
      "Mommy": 1076,
      "ren": 1077,
      "cket": 1078,
      "Ġopen": 1079,
      "Ġglad": 1080,
      "Ġcreat": 1081,
      "Ġthink": 1082,
      "per": 1083,
      "Ġarri": 1084,
      "Ġz": 1085,
      "Ġkid": 1086,
      "Ġbirds": 1087,
      "ĠSarah": 1088,
      "Ġenjoyed": 1089,
      "ĠSpot": 1090,
      "Ġcr": 1091,
      "Ġbeh": 1092,
      "Ġru": 1093,
      "Ġwonderful": 1094,
      "Ġstory": 1095,
      "Ben": 1096,
      "Ġdress": 1097,
      "Ġfilled": 1098,
      "Ġgreen": 1099,
      "Ġhelped": 1100,
      "Ġbunny": 1101,
      "Ġfull": 1102,
      "ĠAfter": 1103,
      "Ġtell": 1104,
      "Ġspot": 1105,
      "imes": 1106,
      "Ġhappily": 1107,
      "Ġsand": 1108,
      "Ġworked": 1109,
      "more": 1110,
      "Ġset": 1111,
      "ĠSally": 1112,
      "Ġanymore": 1113,
      "Ġchildren": 1114,
      "Ġarrived": 1115,
      "Ġcoming": 1116,
      "ued": 1117,
      "Ġlight": 1118,
      "uff": 1119,
      "Ġslow": 1120,
      "Ġmorning": 1121,
      "Ġtop": 1122,
      "Ġhop": 1123,
      "Ġdin": 1124,
      "Ġcla": 1125,
      "Ġcatch": 1126,
      "Ġfire": 1127,
      "Ġstick": 1128,
      "Ġonly": 1129,
      "Ġsmell": 1130,
      "th": 1131,
      "ul": 1132,
      "Ġpie": 1133,
      "Ġkitc": 1134,
      "Ġkitchen": 1135,
      "Ġtra": 1136,
      "Ġfav": 1137,
      "est": 1138,
      "ndma": 1139,
      "rel": 1140,
      "Ġmon": 1141,
      "ĠMolly": 1142,
      "Ġdark": 1143,
      "Ġbrother": 1144,
      "Ġamazing": 1145,
      "Ġdro": 1146,
      "Ġfrog": 1147,
      "ĠIn": 1148,
      "Ġworry": 1149,
      "Can": 1150,
      "ĠEm": 1151,
      "Ġtall": 1152,
      "Ġpull": 1153,
      "Ġswim": 1154,
      "inally": 1155,
      "iss": 1156,
      "ation": 1157,
      "Ġforg": 1158,
      "Ġunderst": 1159,
      "Ġable": 1160,
      "Ġflo": 1161,
      "Ġmove": 1162,
      "ama": 1163,
      "Ġsurprised": 1164,
      "reed": 1165,
      "Ġate": 1166,
      "Ġpond": 1167,
      "ards": 1168,
      "Ġstrange": 1169,
      "Ġbutterfly": 1170,
      "ken": 1171,
      "Ġbus": 1172,
      "aught": 1173,
      "Ġask": 1174,
      "Ġexplor": 1175,
      "Look": 1176,
      "iver": 1177,
      "Ġam": 1178,
      "Ġsat": 1179,
      "Ġherself": 1180,
      "Ġtrees": 1181,
      "sp": 1182,
      "Ġcra": 1183,
      "Ġused": 1184,
      "ĠLet": 1185,
      "Ġenough": 1186,
      "Ġfinished": 1187,
      "ined": 1188,
      "Ġokay": 1189,
      "Ġfew": 1190,
      "Ġdelicious": 1191,
      "Ġyummy": 1192,
      "Ġremembered": 1193,
      "Ġmaking": 1194,
      "Ġdri": 1195,
      "Don": 1196,
      "Ġsoft": 1197,
      "room": 1198,
      "Ġanything": 1199,
      "As": 1200,
      "Ġprom": 1201,
      "Ġfair": 1202,
      "Ġperfect": 1203,
      "Ġyellow": 1204,
      "Ġcontin": 1205,
      "Ġless": 1206,
      "aybe": 1207,
      "ĠThat": 1208,
      "Ġfell": 1209,
      "Ġbehind": 1210,
      "Ġpiece": 1211,
      "Ġmother": 1212,
      "Ġdream": 1213,
      "aring": 1214,
      "Ġgetting": 1215,
      "Ġsleep": 1216,
      "Ġkids": 1217,
      "sc": 1218,
      "Ġhid": 1219,
      "Ġpre": 1220,
      "ign": 1221,
      "Ġlion": 1222,
      "Ġprin": 1223,
      "Ġtrying": 1224,
      "'re": 1225,
      "bo": 1226,
      "red": 1227,
      "Ġmean": 1228,
      "Ġsing": 1229,
      "ars": 1230,
      "immy": 1231,
      "ask": 1232,
      "Ġdraw": 1233,
      "At": 1234,
      "ĠTh": 1235,
      "Sara": 1236,
      "We": 1237,
      "ike": 1238,
      "ph": 1239,
      "ated": 1240,
      "ater": 1241,
      "Timmy": 1242,
      "Ġgone": 1243,
      "ross": 1244,
      "Ġrealized": 1245,
      "Ġcold": 1246,
      "Ġfinally": 1247,
      "Ġdeep": 1248,
      "av": 1249,
      "Ġair": 1250,
      "Ġfunny": 1251,
      "oney": 1252,
      "Ġfox": 1253,
      "Ġown": 1254,
      "His": 1255,
      "ber": 1256,
      "Ġjoy": 1257,
      "co": 1258,
      "ĠK": 1259,
      "Ġhas": 1260,
      "Ġhair": 1261,
      "Ġcontinued": 1262,
      "Ġsec": 1263,
      "ila": 1264,
      "Ġmoment": 1265,
      "Ġleft": 1266,
      "Ġlearn": 1267,
      "Ġslide": 1268,
      "Ġve": 1269,
      "Ġwoods": 1270,
      "ually": 1271,
      "Ġcook": 1272,
      "Then": 1273,
      "eter": 1274,
      "pping": 1275,
      "asure": 1276,
      "Ġwrong": 1277,
      "Ġheld": 1278,
      "Ġfriendly": 1279,
      "Ġpart": 1280,
      "Ġpus": 1281,
      "ced": 1282,
      "Ġbat": 1283,
      "Ġagreed": 1284,
      "ich": 1285,
      "ling": 1286,
      "Ġdr": 1287,
      "Ġstop": 1288,
      "Ġyes": 1289,
      "air": 1290,
      "Ġsho": 1291,
      "Ġdoing": 1292,
      "Ġneeded": 1293,
      "Ġgent": 1294,
      "icy": 1295,
      "Ġvis": 1296,
      "Ġfollowed": 1297,
      "Ġbow": 1298,
      "Ġhole": 1299,
      "Ġleaves": 1300,
      "'ll": 1301,
      "Ġtri": 1302,
      "Ġcool": 1303,
      "Ġcomp": 1304,
      "ĠGra": 1305,
      "Ġdinner": 1306,
      "gon": 1307,
      "Ġbuy": 1308,
      "Ġmess": 1309,
      "Ġtouch": 1310,
      "ĠThere": 1311,
      "Ġbrought": 1312,
      "Ġfix": 1313,
      "ĠJill": 1314,
      "Ġbaby": 1315,
      "Ġel": 1316,
      "Hell": 1317,
      "irrel": 1318,
      "Hello": 1319,
      "Sam": 1320,
      "med": 1321,
      "Ġtight": 1322,
      "enny": 1323,
      "Ġsear": 1324,
      "ield": 1325,
      "ash": 1326,
      "Ġthank": 1327,
      "ĠNow": 1328,
      "Ġcut": 1329,
      "Ġclose": 1330,
      "Ġwindow": 1331,
      "Ġhill": 1332,
      "Ġpretend": 1333,
      "Ġmagical": 1334,
      "Ġfavor": 1335,
      "Ġflying": 1336,
      "Ġpuppy": 1337,
      "From": 1338,
      "Ġmar": 1339,
      "Ġstepped": 1340,
      "Ġfavorite": 1341,
      "Ġbee": 1342,
      "Ġlooks": 1343,
      "Ġstayed": 1344,
      "Ġwasn": 1345,
      "Ġanother": 1346,
      "Ġbelie": 1347,
      "Ġspark": 1348,
      "Ġsquirrel": 1349,
      "Ġbuild": 1350,
      "Ġswing": 1351,
      "Ġlesson": 1352,
      "Ġour": 1353,
      "Ġbeach": 1354,
      "Ġwhite": 1355,
      "Ġblock": 1356,
      "Ġamazed": 1357,
      "Ġice": 1358,
      "mb": 1359,
      "Ġsomeone": 1360,
      "amp": 1361,
      "Ġmost": 1362,
      "ventually": 1363,
      "Wow": 1364,
      "set": 1365,
      "ĠTo": 1366,
      "Ġroll": 1367,
      "Ġunderstand": 1368,
      "Ġelse": 1369,
      "Ġcake": 1370,
      "Ġcloud": 1371,
      "lice": 1372,
      "Ġbag": 1373,
      "Ġmet": 1374,
      "This": 1375,
      "Ġduck": 1376,
      "Ġslowly": 1377,
      "Ġcand": 1378,
      "Ġfarmer": 1379,
      "ze": 1380,
      "ower": 1381,
      "me": 1382,
      "iting": 1383,
      "Ġexploring": 1384,
      "Ġhun": 1385,
      "Ġjob": 1386,
      "Ġlost": 1387,
      "Ġeverything": 1388,
      "Ġpaint": 1389,
      "Ġforgot": 1390,
      "sic": 1391,
      "Ġbel": 1392,
      "cess": 1393,
      "Ġspl": 1394,
      "Ġsong": 1395,
      "Ġcount": 1396,
      "Ġpro": 1397,
      "Ġdoes": 1398,
      "Ġmat": 1399,
      "ance": 1400,
      "ĠAll": 1401,
      "Ġmusic": 1402,
      "ctor": 1403,
      "ment": 1404,
      "Ġlake": 1405,
      "Ġneigh": 1406,
      "bby": 1407,
      "Ġfaster": 1408,
      "Ġneighb": 1409,
      "Ġgu": 1410,
      "Ġsu": 1411,
      "Ġmight": 1412,
      "ĠCan": 1413,
      "Ġwhe": 1414,
      "Ġbre": 1415,
      "oup": 1416,
      "ĠAmy": 1417,
      "ĠBenny": 1418,
      "Ġtable": 1419,
      "Ġturn": 1420,
      "eared": 1421,
      "ĠTommy": 1422,
      "Ġlaugh": 1423,
      "Ġfield": 1424,
      "Ġbelieve": 1425,
      "ming": 1426,
      "Ġread": 1427,
      "Ġbigger": 1428,
      "Ġacross": 1429,
      "oom": 1430,
      "ens": 1431,
      "ames": 1432,
      "Ġballoon": 1433,
      "Ġbroken": 1434,
      "Ġwon": 1435,
      "Ġfur": 1436,
      "Ġpet": 1437,
      "Ġmust": 1438,
      "Ġjoin": 1439,
      "Ġsecret": 1440,
      "Anna": 1441,
      "gle": 1442,
      "ire": 1443,
      "sw": 1444,
      "ĠWhat": 1445,
      "Ġpoin": 1446,
      "anc": 1447,
      "Ġarm": 1448,
      "uffy": 1449,
      "br": 1450,
      "Ġhear": 1451,
      "Ġce": 1452,
      "Ġansw": 1453,
      "avy": 1454,
      "Ġhor": 1455,
      "Ġgi": 1456,
      "Ġword": 1457,
      "Ġturned": 1458,
      "Ġwaited": 1459,
      "Ġdir": 1460,
      "Ġblack": 1461,
      "Ġhold": 1462,
      "Ġtowards": 1463,
      "Ġpromised": 1464,
      "Ġwished": 1465,
      "stle": 1466,
      "gg": 1467,
      "Ġside": 1468,
      "Ġplease": 1469,
      "leph": 1470,
      "ins": 1471,
      "Ġwall": 1472,
      "ĠBilly": 1473,
      "Ġju": 1474,
      "Ġlonger": 1475,
      "row": 1476,
      "Ġride": 1477,
      "Ġremember": 1478,
      "app": 1479,
      "Ġshared": 1480,
      "Ġbar": 1481,
      "Ġpink": 1482,
      "iling": 1483,
      "Ġlone": 1484,
      "ope": 1485,
      "Ġalone": 1486,
      "Ġvisit": 1487,
      "Ġsuch": 1488,
      "Ġriver": 1489,
      "Ġorange": 1490,
      "Ġadventures": 1491,
      "Finally": 1492,
      "Why": 1493,
      "Ġhat": 1494,
      "Ġscary": 1495,
      "Ġcup": 1496,
      "Ġdisapp": 1497,
      "Ġlonely": 1498,
      "os": 1499,
      "Ġsometimes": 1500,
      "Ġseemed": 1501,
      "Ġcars": 1502,
      "Ġowl": 1503,
      "Oh": 1504,
      "ix": 1505,
      "Ġcried": 1506,
      "ney": 1507,
      "Ġrelie": 1508,
      "Ġclimbed": 1509,
      "Ġfloor": 1510,
      "ee": 1511,
      "fort": 1512,
      "Ġhig": 1513,
      "ence": 1514,
      "key": 1515,
      "Ġalong": 1516,
      "Ġcheered": 1517,
      "Ġlistened": 1518,
      "ipped": 1519,
      "zz": 1520,
      "Ġheavy": 1521,
      "Ġcolors": 1522,
      "Ġsilly": 1523,
      "ucky": 1524,
      "Ġclapped": 1525,
      "der": 1526,
      "Ġyoung": 1527,
      "Ġatt": 1528,
      "Ġworried": 1529,
      "ĠThis": 1530,
      "Ġsuddenly": 1531,
      "ott": 1532,
      "Ġcolour": 1533,
      "Ġcor": 1534,
      "Ġstu": 1535,
      "Ġplant": 1536,
      "ained": 1537,
      "Ġothers": 1538,
      "ĠDaddy": 1539,
      "Ġtalk": 1540,
      "Lucy": 1541,
      "ries": 1542,
      "Ġgrow": 1543,
      "Ġhot": 1544,
      "Ġhide": 1545,
      "Ġblocks": 1546,
      "ves": 1547,
      "Ġhelping": 1548,
      "ased": 1549,
      "Ġtreasure": 1550,
      "Ġpers": 1551,
      "less": 1552,
      "ĠDo": 1553,
      "Ġdaddy": 1554,
      "Ġfairy": 1555,
      "ek": 1556,
      "iet": 1557,
      "Ġsmo": 1558,
      "ract": 1559,
      "Ġje": 1560,
      "fused": 1561,
      "Ġtail": 1562,
      "Ġpulled": 1563,
      "Ġhigher": 1564,
      "Bob": 1565,
      "Hi": 1566,
      "ons": 1567,
      "ely": 1568,
      "ĠLila": 1569,
      "Ġnearby": 1570,
      "Ġhungry": 1571,
      "And": 1572,
      "Ġwet": 1573,
      "Ġmoney": 1574,
      "Ġsame": 1575,
      "orm": 1576,
      "Ġbreak": 1577,
      "Ġrelieved": 1578,
      "thy": 1579,
      "chool": 1580,
      "Ġcastle": 1581,
      "ush": 1582,
      "Ġmoral": 1583,
      "Ġob": 1584,
      "ĠMary": 1585,
      "Ġdanger": 1586,
      "ast": 1587,
      "Ġstand": 1588,
      "Ġshap": 1589,
      "andy": 1590,
      "Ġdragon": 1591,
      "Ġeleph": 1592,
      "Ġkitt": 1593,
      "Ġelephant": 1594,
      "Ġtreat": 1595,
      "Ġtiny": 1596,
      "Ġmix": 1597,
      "Ġliving": 1598,
      "Ġclot": 1599,
      "Ġpocket": 1600,
      "Ġ3": 1601,
      "Ġwithout": 1602,
      "ĠFl": 1603,
      "Ġpictures": 1604,
      "Ġpieces": 1605,
      "Ġclothes": 1606,
      "Ġschool": 1607,
      "eddy": 1608,
      "Ġfight": 1609,
      "never": 1610,
      "Ġsea": 1611,
      "Ġsnow": 1612,
      "Ġmonster": 1613,
      "Ġbott": 1614,
      "Ġhappen": 1615,
      "Ġland": 1616,
      "Ġtown": 1617,
      "Ġsail": 1618,
      "Ġstre": 1619,
      "elc": 1620,
      "umb": 1621,
      "Ġeverywhere": 1622,
      "Ġpaper": 1623,
      "Ġquiet": 1624,
      "Ġclosed": 1625,
      "Ġcolorful": 1626,
      "Ġgentle": 1627,
      "Ġdes": 1628,
      "Ġmin": 1629,
      "Ġkite": 1630,
      "ĠJimmy": 1631,
      "ions": 1632,
      "Ġteac": 1633,
      "ĠEmma": 1634,
      "weet": 1635,
      "Ġbor": 1636,
      "Ġshop": 1637,
      "Ġblank": 1638,
      "uit": 1639,
      "Ġstone": 1640,
      "Ġcave": 1641,
      "Ġcho": 1642,
      "Ġbooks": 1643,
      "Ġjour": 1644,
      "Ġsees": 1645,
      "Ġbike": 1646,
      "Ġfall": 1647,
      "Ġfree": 1648,
      "Ġheart": 1649,
      "Ġdoctor": 1650,
      "Ġcaught": 1651,
      "Ġbucket": 1652,
      "Ġblanket": 1653,
      "Ġtoday": 1654,
      "Ġnap": 1655,
      "Ġrace": 1656,
      "Ġrel": 1657,
      "Ġexciting": 1658,
      "Ġdisco": 1659,
      "Ġbath": 1660,
      "Max": 1661,
      "ward": 1662,
      "Ġpig": 1663,
      "ÅĵI": 1664,
      "Molly": 1665,
      "sy": 1666,
      "Ġpower": 1667,
      "vered": 1668,
      "ail": 1669,
      "la": 1670,
      "rew": 1671,
      "Ġthough": 1672,
      "Ġplan": 1673,
      "Ġret": 1674,
      "Ġgrandma": 1675,
      "Ġeating": 1676,
      "lf": 1677,
      "yard": 1678,
      "Ġsit": 1679,
      "ining": 1680,
      "Ġpack": 1681,
      "Ġmoved": 1682,
      "Ġwords": 1683,
      "Ġwise": 1684,
      "Ġbask": 1685,
      "Ġhar": 1686,
      "Ġwear": 1687,
      "Ġreach": 1688,
      "Ġgrate": 1689,
      "Ġtaking": 1690,
      "Ġfruit": 1691,
      "aughter": 1692,
      "Ġretur": 1693,
      "Ġbasket": 1694,
      "ible": 1695,
      "oun": 1696,
      "Ġupset": 1697,
      "Ġbackyard": 1698,
      "Ġswam": 1699,
      "ĠSoon": 1700,
      "Ġcookies": 1701,
      "ier": 1702,
      "Ġwelc": 1703,
      "Ġgather": 1704,
      "ister": 1705,
      "Ġlife": 1706,
      "Ġsnack": 1707,
      "Ġdrove": 1708,
      "Ġgrateful": 1709,
      "Do": 1710,
      "bble": 1711,
      "Ġbite": 1712,
      "Ġinc": 1713,
      "ĠMama": 1714,
      "Ġdance": 1715,
      "Ġteacher": 1716,
      "Ġwouldn": 1717,
      "Ġlikes": 1718,
      "Ġlaughing": 1719,
      "Ġcandy": 1720,
      "Ġheal": 1721,
      "Ġpurp": 1722,
      "ises": 1723,
      "Ġwoke": 1724,
      "pe": 1725,
      "Ġcream": 1726,
      "unch": 1727,
      "Ġdelight": 1728,
      "Ġapple": 1729,
      "Ġparty": 1730,
      "Maybe": 1731,
      "round": 1732,
      "lebr": 1733,
      "Ġinst": 1734,
      "Ġnothing": 1735,
      "epend": 1736,
      "Ġmyster": 1737,
      "Ġsmiles": 1738,
      "Ġtrain": 1739,
      "ĠInside": 1740,
      "Ġshoes": 1741,
      "Ġcelebr": 1742,
      "Ġdangerous": 1743,
      "Ġcour": 1744,
      "Ġstuck": 1745,
      "ĠMr": 1746,
      "Ġcreature": 1747,
      "Ġpurple": 1748,
      "Ġnaught": 1749,
      "pper": 1750,
      "Ġcoll": 1751,
      "Ġswimming": 1752,
      "Ġjourney": 1753,
      "Ġsister": 1754,
      "itch": 1755,
      "Ġdays": 1756,
      "Ġmakes": 1757,
      "Ġcrying": 1758,
      "de": 1759,
      "ho": 1760,
      "pa": 1761,
      "Ġboun": 1762,
      "Ġcou": 1763,
      "Ġdist": 1764,
      "Ġsunny": 1765,
      "Ġpath": 1766,
      "Ġeventually": 1767,
      "Ġvill": 1768,
      "Ġbush": 1769,
      "Ġbusy": 1770,
      "gled": 1771,
      "Ġcir": 1772,
      "Ġdaughter": 1773,
      "ĠWith": 1774,
      "Ġbring": 1775,
      "Ġcourse": 1776,
      "Ġcirc": 1777,
      "Ġplane": 1778,
      "adow": 1779,
      "Ġspr": 1780,
      "Ġspotted": 1781,
      "Ġnaughty": 1782,
      "cing": 1783,
      "Ġpot": 1784,
      "Ġont": 1785,
      "Ġtrou": 1786,
      "Ġimag": 1787,
      "Ġpres": 1788,
      "Ġonto": 1789,
      "Ġbreat": 1790,
      "ete": 1791,
      "Ġspent": 1792,
      "Ġlea": 1793,
      "Ġadm": 1794,
      "Ġforever": 1795,
      "Ġsmiling": 1796,
      "Ġwhist": 1797,
      "Ġcray": 1798,
      "Ġdirty": 1799,
      "uched": 1800,
      "Ġwings": 1801,
      "Ġtouched": 1802,
      "Ġpen": 1803,
      "Ġpract": 1804,
      "Ġpast": 1805,
      "Ġsearch": 1806,
      "Ġminut": 1807,
      "Ġgif": 1808,
      "Ġwell": 1809,
      "Ġhuge": 1810,
      "Ġjuice": 1811,
      "ead": 1812,
      "Ġgig": 1813,
      "Ġsol": 1814,
      "Ġmeet": 1815,
      "ountain": 1816,
      "board": 1817,
      "Ġbelong": 1818,
      "itting": 1819,
      "Ġshining": 1820,
      "Ġbroke": 1821,
      "Ġtasted": 1822,
      "Ġpushed": 1823,
      "Ġneighbor": 1824,
      "Every": 1825,
      "Ġscream": 1826,
      "Ġexplained": 1827,
      "Ġsinging": 1828,
      "OK": 1829,
      "ped": 1830,
      "rot": 1831,
      "rest": 1832,
      "Ġmark": 1833,
      "Ġthin": 1834,
      "irt": 1835,
      "Ġear": 1836,
      "ĠTweet": 1837,
      "ĠJake": 1838,
      "ĠJenny": 1839,
      "ours": 1840,
      "Ġfoot": 1841,
      "Ġwatching": 1842,
      "Ġtasty": 1843,
      "Ġpresent": 1844,
      "erest": 1845,
      "Ġgames": 1846,
      "ness": 1847,
      "Ġforget": 1848,
      "Ġsmart": 1849,
      "Ġinterest": 1850,
      "Ġpeace": 1851,
      "Ġbowl": 1852,
      "Ġclouds": 1853,
      "ndpa": 1854,
      "ont": 1855,
      "Ġsunsh": 1856,
      "Ġfront": 1857,
      "Ġprincess": 1858,
      "Ġsmooth": 1859,
      "Ġsunshine": 1860,
      "Ġeag": 1861,
      "Ġstars": 1862,
      "Ġlift": 1863,
      "Ġpol": 1864,
      "'d": 1865,
      "ps": 1866,
      "Ġsug": 1867,
      "Ġsign": 1868,
      "Ġeas": 1869,
      "cked": 1870,
      "rill": 1871,
      "outh": 1872,
      "Ġwhich": 1873,
      "Ġkey": 1874,
      "Ġplaces": 1875,
      "Tommy": 1876,
      "Ġstories": 1877,
      "Ġdolls": 1878,
      "Ġpatient": 1879,
      "Ġstreet": 1880,
      "Ġlate": 1881,
      "Ġsack": 1882,
      "Ġcarry": 1883,
      "Ġdanced": 1884,
      "Ġsuc": 1885,
      "Ġsitting": 1886,
      "read": 1887,
      "Ġdry": 1888,
      "Ġsang": 1889,
      "Ġcozy": 1890,
      "Ġappeared": 1891,
      "Ġcraw": 1892,
      "Ġrolled": 1893,
      "Ġwelcome": 1894,
      "Mum": 1895,
      "Okay": 1896,
      "Sure": 1897,
      "Ġ'": 1898,
      "Ġchair": 1899,
      "Ġbrown": 1900,
      "Ġwhole": 1901,
      "ize": 1902,
      "ocked": 1903,
      "Ġdrink": 1904,
      "Ġvillage": 1905,
      "ten": 1906,
      "Ġwin": 1907,
      "Ġfit": 1908,
      "Ġfig": 1909,
      "Ġmine": 1910,
      "arge": 1911,
      "Ġwants": 1912,
      "Ġspoon": 1913,
      "Ġmummy": 1914,
      "Ġwondered": 1915,
      "Ġacc": 1916,
      "Ġmonkey": 1917,
      "ĠFluffy": 1918,
      "Just": 1919,
      "mor": 1920,
      "ond": 1921,
      "Ġact": 1922,
      "Joe": 1923,
      "Ġrocks": 1924,
      "ĠGrandma": 1925,
      "Ġhorse": 1926,
      "gly": 1927,
      "Ġlunch": 1928,
      "Ġmouth": 1929,
      "gest": 1930,
      "Ġdropped": 1931,
      "Ġarms": 1932,
      "Ġperson": 1933,
      "ass": 1934,
      "Ġsort": 1935,
      "Ġspin": 1936,
      "ĠEmily": 1937,
      "Ġshapes": 1938,
      "Ġinteresting": 1939,
      "bow": 1940,
      "fish": 1941,
      "gged": 1942,
      "man": 1943,
      "ove": 1944,
      "Ġent": 1945,
      "Ġlarge": 1946,
      "Ġemb": 1947,
      "Ġround": 1948,
      "alm": 1949,
      "blem": 1950,
      "Ġowner": 1951,
      "Ġmail": 1952,
      "Ġcorner": 1953,
      "Jane": 1954,
      "ground": 1955,
      "og": 1956,
      "Ġbought": 1957,
      "Ġph": 1958,
      "Ġoce": 1959,
      "arra": 1960,
      "ider": 1961,
      "Ġshook": 1962,
      "Ġrec": 1963,
      "Ġspicy": 1964,
      "Ġcarrot": 1965,
      "ĠFinally": 1966,
      "Ġquest": 1967,
      "usie": 1968,
      "Ġconfused": 1969,
      "Ġrainbow": 1970,
      "Ġsearched": 1971,
      "Ġproblem": 1972,
      "fortable": 1973,
      "Ġembarra": 1974,
      "Ġocean": 1975,
      "unt": 1976,
      "Ġsur": 1977,
      "Ġpool": 1978,
      "Ġmist": 1979,
      "Ġyard": 1980,
      "Ġgroup": 1981,
      "izz": 1982,
      "ĠPete": 1983,
      "Ġlovely": 1984,
      "Ġdriver": 1985,
      "ĠTogether": 1986,
      "Ġcollect": 1987,
      "Ġign": 1988,
      "Ġwish": 1989,
      "Ġegg": 1990,
      "Ġkitten": 1991,
      "aur": 1992,
      "obby": 1993,
      "Ġletter": 1994,
      "llo": 1995,
      "Ġshr": 1996,
      "Ġresp": 1997,
      "Ġleg": 1998,
      "Ġnoises": 1999,
      "Ġfarm": 2000,
      "Ġlucky": 2001,
      "Ġmiss": 2002,
      "lex": 2003,
      "anch": 2004,
      "Ġbranch": 2005,
      "ĠCh": 2006,
      "eterm": 2007,
      "Ġpointed": 2008,
      "Ġinstead": 2009,
      "Ġdeterm": 2010,
      "Ġthrew": 2011,
      "irth": 2012,
      "irthday": 2013,
      "Jimmy": 2014,
      "dle": 2015,
      "Ġblew": 2016,
      "let": 2017,
      "ang": 2018,
      "ord": 2019,
      "Ġlem": 2020,
      "Ġchest": 2021,
      "Ġasks": 2022,
      "scap": 2023,
      "In": 2024,
      "cer": 2025,
      "Ġaf": 2026,
      "Ġwild": 2027,
      "Ġben": 2028,
      "itty": 2029,
      "Ġforward": 2030,
      "Ġbutt": 2031,
      "Ġbone": 2032,
      "Ġjun": 2033,
      "Ġexcite": 2034,
      "ular": 2035,
      "Ġsplas": 2036,
      "Mia": 2037,
      "den": 2038,
      "ity": 2039,
      "Ġfence": 2040,
      "Ġpudd": 2041,
      "Ġmis": 2042,
      "Ġstood": 2043,
      "Ġshy": 2044,
      "Ġnet": 2045,
      "Ġspo": 2046,
      "Hey": 2047,
      "Ġimpre": 2048,
      "Ġanswer": 2049,
      "Ġbottle": 2050,
      "Ġembarrassed": 2051,
      "Ġexcitement": 2052,
      "Now": 2053,
      "een": 2054,
      "Ġtun": 2055,
      "Ġant": 2056,
      "Ġwra": 2057,
      "Ġlay": 2058,
      "Ġkick": 2059,
      "Ġfeet": 2060,
      "Ġmeadow": 2061,
      "Ġcarried": 2062,
      "Ġpass": 2063,
      "Ġbedroom": 2064,
      "Ġeager": 2065,
      "Come": 2066,
      "Ġap": 2067,
      "Ġpile": 2068,
      "ident": 2069,
      "idge": 2070,
      "Ġremind": 2071,
      "Ġjoke": 2072,
      "Ġtalking": 2073,
      "Ġbugs": 2074,
      "ancy": 2075,
      "Ġstanding": 2076,
      "Ġbreath": 2077,
      "Mama": 2078,
      "Ġteddy": 2079,
      "Ġwearing": 2080,
      "ĠMum": 2081,
      "ĠEverywhere": 2082,
      "ult": 2083,
      "Ġcute": 2084,
      "Ġwhenever": 2085,
      "Ġbirthday": 2086,
      "Ġhours": 2087,
      "Ġcow": 2088,
      "Ġinv": 2089,
      "Ġugly": 2090,
      "Ġplayground": 2091,
      "Ġnest": 2092,
      "?\".": 2093,
      "Ġswings": 2094,
      "Ġhidden": 2095,
      "Ġmatter": 2096,
      "Ġreturned": 2097,
      "Ġgathered": 2098,
      "Ġgift": 2099,
      "My": 2100,
      "Of": 2101,
      "old": 2102,
      "Ġspider": 2103,
      "ĠEven": 2104,
      "Ġorgan": 2105,
      "Ġteach": 2106,
      "Ġmysterious": 2107,
      "aking": 2108,
      "Ġser": 2109,
      "Ġpill": 2110,
      "iddle": 2111,
      "anut": 2112,
      "amed": 2113,
      "ĠJen": 2114,
      "Ġspe": 2115,
      "Ġtwins": 2116,
      "Ġfold": 2117,
      "Ġclever": 2118,
      "Ġsounds": 2119,
      "Ġbuilding": 2120,
      "Ġgiant": 2121,
      "Ġholding": 2122,
      "Ġfigure": 2123,
      "Ġjungle": 2124,
      "ose": 2125,
      "orn": 2126,
      "Ġasleep": 2127,
      "raid": 2128,
      "Ġexp": 2129,
      "Ġjar": 2130,
      "Ġhelpful": 2131,
      "Ġhoped": 2132,
      "Ġcolourful": 2133,
      "Ġhealthy": 2134,
      "Mummy": 2135,
      "nic": 2136,
      "sist": 2137,
      "Ġsne": 2138,
      "Ġbur": 2139,
      "Ġhello": 2140,
      "owed": 2141,
      "vel": 2142,
      "ĠMaybe": 2143,
      "Ġrob": 2144,
      "Ġprot": 2145,
      "Ġhopping": 2146,
      "ĠCome": 2147,
      "Ġpicnic": 2148,
      "Ġtalked": 2149,
      "Ġdrive": 2150,
      "Ġdetermined": 2151,
      "Ġafraid": 2152,
      "ball": 2153,
      "ey": 2154,
      "nn": 2155,
      "Ġsoup": 2156,
      "Ġlit": 2157,
      "Ġwash": 2158,
      "Ġple": 2159,
      "Ġmad": 2160,
      "ĠSt": 2161,
      "Ġbell": 2162,
      "Ġbubble": 2163,
      "Ġtower": 2164,
      "Ġyelled": 2165,
      "Ġzoom": 2166,
      "Sarah": 2167,
      "Ġturns": 2168,
      "Ġrobot": 2169,
      "Ġwide": 2170,
      "Ġmind": 2171,
      "Ġwrite": 2172,
      "Ġpuzz": 2173,
      "Ġsmelled": 2174,
      "Ġtightly": 2175,
      "Ġsparkly": 2176,
      "Ġprotect": 2177,
      "ian": 2178,
      "Ġdi": 2179,
      "Ġrope": 2180,
      "Ġgently": 2181,
      "Ġfurry": 2182,
      "Ġminutes": 2183,
      "Ġignor": 2184,
      "Good": 2185,
      "Later": 2186,
      "hile": 2187,
      "Ġtear": 2188,
      "Ġfancy": 2189,
      "Ġcard": 2190,
      "Ġmot": 2191,
      "Ġsaf": 2192,
      "Ġsailed": 2193,
      "owing": 2194,
      "Ġstep": 2195,
      "Ġkiss": 2196,
      "Ġexam": 2197,
      "Ġseek": 2198,
      "Ġlast": 2199,
      "elly": 2200,
      "Ġval": 2201,
      "ĠFred": 2202,
      "ĠSammy": 2203,
      "ĠJohnny": 2204,
      "Ġthinks": 2205,
      "Ġtrouble": 2206,
      "Ġlemon": 2207,
      "col": 2208,
      "Ġsour": 2209,
      "Ġwave": 2210,
      "Ġfing": 2211,
      "ert": 2212,
      "Ġlater": 2213,
      "Ġescap": 2214,
      "Ġang": 2215,
      "ĠJust": 2216,
      "Ġmud": 2217,
      "Ġbecome": 2218,
      "Ġanyone": 2219,
      "Soon": 2220,
      "Ġapples": 2221,
      "Ġgrew": 2222,
      "ependable": 2223,
      "Ġaccident": 2224,
      "ale": 2225,
      "light": 2226,
      "ual": 2227,
      "Ġband": 2228,
      "Ġwander": 2229,
      "Ġmiddle": 2230,
      "Ġstar": 2231,
      "ĠMar": 2232,
      "Ġflut": 2233,
      "Ġsandw": 2234,
      "ĠKitty": 2235,
      "gy": 2236,
      "Ġsick": 2237,
      "Ġmed": 2238,
      "Ġstir": 2239,
      "urry": 2240,
      "Ġhope": 2241,
      "Ġdisappeared": 2242,
      "Sally": 2243,
      "Where": 2244,
      "Ġthese": 2245,
      "Ġcoo": 2246,
      "Ġpar": 2247,
      "ating": 2248,
      "ĠMummy": 2249,
      "ĠJim": 2250,
      "Ġlaw": 2251,
      "Ġgrab": 2252,
      "Ġfinish": 2253,
      "Ġwaiting": 2254,
      "Ġhoney": 2255,
      "Ġlad": 2256,
      "cept": 2257,
      "ĠBobby": 2258,
      "ife": 2259,
      "Ġmoon": 2260,
      "Ġjumping": 2261,
      "Ġcheer": 2262,
      "ĠPeter": 2263,
      "Ġsmelly": 2264,
      "Ġanswered": 2265,
      "Ġpowerful": 2266,
      "Ġcouch": 2267,
      "Ġpeaceful": 2268,
      "Ġpuddle": 2269,
      "Ġangel": 2270,
      "ĠOn": 2271,
      "Ġber": 2272,
      "Ġbal": 2273,
      "Ġmach": 2274,
      "ighed": 2275,
      "Ġweek": 2276,
      "Ġshirt": 2277,
      "alous": 2278,
      "Ġash": 2279,
      "Ġasking": 2280,
      "getable": 2281,
      "Ġnose": 2282,
      "Ġmanag": 2283,
      "ĠEnd": 2284,
      "Ġtest": 2285,
      "Ġrocket": 2286,
      "Ġjealous": 2287,
      "Ġtreats": 2288,
      "Ġmotor": 2289,
      "Ġladder": 2290,
      "Ġhit": 2291,
      "Ġgas": 2292,
      "ilk": 2293,
      "Ġneck": 2294,
      "ĠBe": 2295,
      "Ġpaw": 2296,
      "Ġpeanut": 2297,
      "ipe": 2298,
      "Ġstorm": 2299,
      "Ġsleepy": 2300,
      "Ġvegetable": 2301,
      "Ġtrip": 2302,
      "Ġthankful": 2303,
      "Ġsupp": 2304,
      "Ġsuccess": 2305,
      "To": 2306,
      "ipp": 2307,
      "ying": 2308,
      "Ġtig": 2309,
      "Ġcalm": 2310,
      "Ġdependable": 2311,
      "Ġmountain": 2312,
      "Ġmilk": 2313,
      "isa": 2314,
      "ener": 2315,
      "ĠSusie": 2316,
      "Ġdancing": 2317,
      "Ġhiding": 2318,
      "ĠTweety": 2319,
      "St": 2320,
      "cle": 2321,
      "iant": 2322,
      "mo": 2323,
      "oin": 2324,
      "Ġpizz": 2325,
      "oose": 2326,
      "Ġshore": 2327,
      "als": 2328,
      "Ġspread": 2329,
      "Ġgoat": 2330,
      "Ġseat": 2331,
      "Ġbrush": 2332,
      "Ġcoin": 2333,
      "Ġpolice": 2334,
      "Ġtaste": 2335,
      "Ġpromise": 2336,
      "Ġcrayons": 2337,
      "Ġscreamed": 2338,
      "rilliant": 2339,
      "Ġmistake": 2340,
      "Amy": 2341,
      "Gra": 2342,
      "Please": 2343,
      "hin": 2344,
      "pill": 2345,
      "uce": 2346,
      "vous": 2347,
      "wel": 2348,
      "Ġter": 2349,
      "Ġsel": 2350,
      "Ġwom": 2351,
      "Ġbrilliant": 2352,
      "Ġwagon": 2353,
      "Ġfather": 2354,
      "erpill": 2355,
      "Ġhel": 2356,
      "Ġsave": 2357,
      "eth": 2358,
      "Ġnut": 2359,
      "oof": 2360,
      "urse": 2361,
      "ĠAlice": 2362,
      "Ġbull": 2363,
      "Ġpoor": 2364,
      "Ġpassed": 2365,
      "Ġcaterpill": 2366,
      "Ġtrust": 2367,
      "umpy": 2368,
      "izzy": 2369,
      "Ġmatch": 2370,
      "Ġdisappoin": 2371,
      "Ġincred": 2372,
      "Ġwoman": 2373,
      "eb": 2374,
      "Ġem": 2375,
      "Ġoften": 2376,
      "Ġreg": 2377,
      "ured": 2378,
      "Ġchased": 2379,
      "ÅĵLet": 2380,
      "apa": 2381,
      "Ġrealised": 2382,
      "Ġpush": 2383,
      "Ġjewel": 2384,
      "Ġwhistle": 2385,
      "Ġrespect": 2386,
      "most": 2387,
      "land": 2388,
      "ina": 2389,
      "Ġmic": 2390,
      "Ġgener": 2391,
      "Ġstret": 2392,
      "Ġwhis": 2393,
      "umber": 2394,
      "Ġchick": 2395,
      "Ġskipped": 2396,
      "Ġcreative": 2397,
      "ĠThank": 2398,
      "Ġdesk": 2399,
      "Ġmanaged": 2400,
      "Ġterri": 2401,
      "Ġcaterpillar": 2402,
      "Dad": 2403,
      "Em": 2404,
      "rated": 2405,
      "Ġtask": 2406,
      "ination": 2407,
      "Ġcher": 2408,
      "Ġok": 2409,
      "There": 2410,
      "imp": 2411,
      "irp": 2412,
      "Ġner": 2413,
      "Ġshell": 2414,
      "ĠTV": 2415,
      "Ġalmost": 2416,
      "Ġfeels": 2417,
      "Ġgray": 2418,
      "Ġknowing": 2419,
      "Ġtrue": 2420,
      "Ġcomes": 2421,
      "Ġsplash": 2422,
      "Ġpizza": 2423,
      "Ġempt": 2424,
      "Ġmicro": 2425,
      "Ġgenerous": 2426,
      "Lila": 2427,
      "cient": 2428,
      "Ġtrave": 2429,
      "Ġsil": 2430,
      "Ġhang": 2431,
      "ĠSandy": 2432,
      "Ġweak": 2433,
      "Ġancient": 2434,
      "Ġnod": 2435,
      "ÅĵIt": 2436,
      "Ġtaken": 2437,
      "ushed": 2438,
      "Ġruns": 2439,
      "Ġclass": 2440,
      "Ġwheel": 2441,
      "Ġplants": 2442,
      "ĠMrs": 2443,
      "Ġeasy": 2444,
      "Ġselfish": 2445,
      "Ġincredible": 2446,
      "Ġnervous": 2447,
      "Ġempty": 2448,
      "Ġtid": 2449,
      "Ġtag": 2450,
      "edient": 2451,
      "Ġbra": 2452,
      "Ġsaved": 2453,
      "anny": 2454,
      "ors": 2455,
      "Ġstra": 2456,
      "ese": 2457,
      "ĠLittle": 2458,
      "Ġking": 2459,
      "Ġgold": 2460,
      "Ġlead": 2461,
      "oph": 2462,
      "Ġcovered": 2463,
      "eper": 2464,
      "Ġhugs": 2465,
      "usual": 2466,
      "Ġunusual": 2467,
      "Ġunderstood": 2468,
      "Ġsongs": 2469,
      "Ġdiscovered": 2470,
      "Ġvegetables": 2471,
      "ub": 2472,
      "Ġadd": 2473,
      "Ġline": 2474,
      "Ġgar": 2475,
      "orge": 2476,
      "keeper": 2477,
      "Ġisland": 2478,
      "Ġfeather": 2479,
      "oby": 2480,
      "ÅĵThat": 2481,
      "ctus": 2482,
      "umbled": 2483,
      "Ġimpressed": 2484,
      "Ġdisappointed": 2485,
      "Ġed": 2486,
      "Ġaw": 2487,
      "Ġpin": 2488,
      "ĠSome": 2489,
      "Ġshake": 2490,
      "Ġspend": 2491,
      "Ġclay": 2492,
      "Ġcactus": 2493,
      "opus": 2494,
      "ustrated": 2495,
      "Ġknee": 2496,
      "ÅĵWhat": 2497,
      "Ġmod": 2498,
      "Ġpicking": 2499,
      "Ġslid": 2500,
      "ctopus": 2501,
      "Ġbrightly": 2502,
      "Ġneighbour": 2503,
      "Ġobedient": 2504,
      "Ġrecord": 2505,
      "Well": 2506,
      "ject": 2507,
      "une": 2508,
      "Ġadded": 2509,
      "Ġsight": 2510,
      "Ġoven": 2511,
      "Ġoctopus": 2512,
      "ately": 2513,
      "Ġsock": 2514,
      "Ġring": 2515,
      "Ġlive": 2516,
      "Ġext": 2517,
      "icine": 2518,
      "umsy": 2519,
      "ometimes": 2520,
      "Ġmeasure": 2521,
      "Ġtaught": 2522,
      "Ġtwirl": 2523,
      "ache": 2524,
      "Ġfavour": 2525,
      "airs": 2526,
      "Ġrelax": 2527,
      "Ġdelighted": 2528,
      "Ġdistance": 2529,
      "Ġphone": 2530,
      "Ġbench": 2531,
      "Ġmedicine": 2532,
      "Alice": 2533,
      "Billy": 2534,
      "Mary": 2535,
      "up": 2536,
      "und": 2537,
      "Ġav": 2538,
      "ĠAt": 2539,
      "Ġmeant": 2540,
      "Ġones": 2541,
      "Ġknocked": 2542,
      "ÅĵYes": 2543,
      "iable": 2544,
      "Ġchew": 2545,
      "Ġcheese": 2546,
      "ĠCl": 2547,
      "Ġfrustrated": 2548,
      "Ġpainting": 2549,
      "Ġstronger": 2550,
      "Ġcontent": 2551,
      "Ġmessy": 2552,
      "Ġfixed": 2553,
      "Ġhappening": 2554,
      "Ġreliable": 2555,
      "Ġsolve": 2556,
      "Ġmarket": 2557,
      "Ġtiger": 2558,
      "Ġfavourite": 2559,
      "ĠO": 2560,
      "Ġfil": 2561,
      "Ġgem": 2562,
      "ana": 2563,
      "ork": 2564,
      "itter": 2565,
      "Ġonce": 2566,
      "Ġliz": 2567,
      "ĠBr": 2568,
      "!\".": 2569,
      "Ġfear": 2570,
      "Ġotter": 2571,
      "Ġfluffy": 2572,
      "Ġgrand": 2573,
      "Ġgrace": 2574,
      "Ġskin": 2575,
      "Ġcalling": 2576,
      "Ġloves": 2577,
      "Ġdead": 2578,
      "Ġpretended": 2579,
      "Ġdirt": 2580,
      "Ġstudy": 2581,
      "Ġpleased": 2582,
      "Ġescape": 2583,
      "eorge": 2584,
      "Ġind": 2585,
      "Ġicy": 2586,
      "henever": 2587,
      "Ġtick": 2588,
      "Ġhive": 2589,
      "Ġpenny": 2590,
      "unk": 2591,
      "Ġspace": 2592,
      "Ġscr": 2593,
      "Ġroad": 2594,
      "Ġdecor": 2595,
      "Ġvi": 2596,
      "Ġmoving": 2597,
      "Ġord": 2598,
      "Ġkinds": 2599,
      "ĠPapa": 2600,
      "ĠAndy": 2601,
      "Ġthrow": 2602,
      "ĠRe": 2603,
      "Ġcrack": 2604,
      "box": 2605,
      "Ġlanded": 2606,
      "Ġsnacks": 2607,
      "Ġgiggled": 2608,
      "Ġpolite": 2609,
      "Ġsplashed": 2610,
      "Ġgarage": 2611,
      "Ġextra": 2612,
      "year": 2613,
      "Ġtomor": 2614,
      "Ġfis": 2615,
      "Ġlying": 2616,
      "Ġdizzy": 2617,
      "Ġpop": 2618,
      "lla": 2619,
      "anged": 2620,
      "ĠTheir": 2621,
      "ention": 2622,
      "Ġexcitedly": 2623,
      "ella": 2624,
      "Ġcoat": 2625,
      "ĠDon": 2626,
      "Ġyourself": 2627,
      "Ġteam": 2628,
      "Ġwalks": 2629,
      "ola": 2630,
      "Ġexplored": 2631,
      "Ġcookie": 2632,
      "Ġducks": 2633,
      "Ġchocol": 2634,
      "Ġcircles": 2635,
      "Ġsuggest": 2636,
      "Ġsnee": 2637,
      "Ġpuzzle": 2638,
      "Ġaccidentally": 2639,
      "Ġterrible": 2640,
      "Ġtomorrow": 2641,
      "aby": 2642,
      "bin": 2643,
      "ever": 2644,
      "lies": 2645,
      "wards": 2646,
      "zed": 2647,
      "Ġwis": 2648,
      "ready": 2649,
      "Ġdish": 2650,
      "ony": 2651,
      "Ġstuff": 2652,
      "Ġrid": 2653,
      "Ġroof": 2654,
      "ittens": 2655,
      "Ġship": 2656,
      "Ġarrow": 2657,
      "ĠAlex": 2658,
      "Ġcabin": 2659,
      "Ġalready": 2660,
      "ĠWhenever": 2661,
      "asing": 2662,
      "Ġgrumpy": 2663,
      "ĠPolly": 2664,
      "Ġfrown": 2665,
      "Ġdest": 2666,
      "Ġjog": 2667,
      "Ġaccept": 2668,
      "Ġbald": 2669,
      "Ġstones": 2670,
      "Ġharm": 2671,
      "Ġleaf": 2672,
      "Ġquestions": 2673,
      "Be": 2674,
      "Sue": 2675,
      "cy": 2676,
      "kin": 2677,
      "pack": 2678,
      "Ġcomet": 2679,
      "Ġpour": 2680,
      "arp": 2681,
      "ature": 2682,
      "imed": 2683,
      "ĠSm": 2684,
      "Ġstream": 2685,
      "Ġyog": 2686,
      "Ġsharp": 2687,
      "ĠAl": 2688,
      "Ġboys": 2689,
      "ecially": 2690,
      "Ġtakes": 2691,
      "Ġsnake": 2692,
      "Ġsquare": 2693,
      "Ġsounded": 2694,
      "specially": 2695,
      "body": 2696,
      "berry": 2697,
      "Ġcelebrate": 2698,
      "Ġsorts": 2699,
      "Ġbutton": 2700,
      "Ġlizard": 2701,
      "Jill": 2702,
      "work": 2703,
      "Ġhipp": 2704,
      "reen": 2705,
      "Ġpri": 2706,
      "Ġespecially": 2707,
      "Ġshelf": 2708,
      "Ġplate": 2709,
      "Ġrefused": 2710,
      "Ġboard": 2711,
      "Ġseed": 2712,
      "uring": 2713,
      "urous": 2714,
      "Ġbranc": 2715,
      "Ġabove": 2716,
      "Ġcomfortable": 2717,
      "Ġadventurous": 2718,
      "Ġclear": 2719,
      "Ġturkey": 2720,
      "Ġsquee": 2721,
      "Ġperform": 2722,
      "Ġdrum": 2723,
      "ĠGrandpa": 2724,
      "Ġgiving": 2725,
      "Ġsearching": 2726,
      "Ġpillow": 2727,
      "Ġmachine": 2728,
      "ÅĵLetÃ¢": 2729,
      "Ġtidy": 2730,
      "ophie": 2731,
      "Ġchocolate": 2732,
      "Ġbranches": 2733,
      "loo": 2734,
      "live": 2735,
      "port": 2736,
      "uz": 2737,
      "Ġtie": 2738,
      "Ġwore": 2739,
      "iness": 2740,
      "Ġthick": 2741,
      "Ġstumbled": 2742,
      "Ġshone": 2743,
      "Ġdolp": 2744,
      "rage": 2745,
      "Ġlock": 2746,
      "Ġflash": 2747,
      "Ġfridge": 2748,
      "Ġpainted": 2749,
      "Ġusing": 2750,
      "Ġcrown": 2751,
      "Ġsticks": 2752,
      "Ġmarch": 2753,
      "Ġmixed": 2754,
      "Ġpacked": 2755,
      "Ġcrawled": 2756,
      "Ġedge": 2757,
      "Ġhippo": 2758,
      "Ġcart": 2759,
      "ison": 2760,
      "Ġbees": 2761,
      "Ġrich": 2762,
      "ĠLisa": 2763,
      "Ġbody": 2764,
      "Ġload": 2765,
      "Ġclumsy": 2766,
      "ĠEventually": 2767,
      "Ġlazy": 2768,
      "Ġtape": 2769,
      "Ġskip": 2770,
      "âĤ¬âĢ": 2771,
      "Ġraven": 2772,
      "Ġmaze": 2773,
      "Ġfaces": 2774,
      "Ġdinos": 2775,
      "Ġbushes": 2776,
      "ĠToday": 2777,
      "Ġguil": 2778,
      "Ġguard": 2779,
      "ensive": 2780,
      "Ġwalls": 2781,
      "Ġfighting": 2782,
      "Ġdiscover": 2783,
      "Ġbelonged": 2784,
      "Ġexpensive": 2785,
      "Ġsandwich": 2786,
      "ĠSmith": 2787,
      "iqu": 2788,
      "uable": 2789,
      "Ġtimes": 2790,
      "Ġsighed": 2791,
      "Ġtoug": 2792,
      "Ġwaves": 2793,
      "Ġfool": 2794,
      "Ġdull": 2795,
      "Ġpir": 2796,
      "ĠHow": 2797,
      "ote": 2798,
      "Ġrushed": 2799,
      "ĠToby": 2800,
      "Ġlog": 2801,
      "ĠAnn": 2802,
      "Ġcloth": 2803,
      "Ġfeed": 2804,
      "Ġexcla": 2805,
      "ĠWhy": 2806,
      "Ġqueen": 2807,
      "Ġcheck": 2808,
      "Ġuniqu": 2809,
      "ĠNo": 2810,
      "Ġdelicate": 2811,
      "Ġrude": 2812,
      "Ġdrank": 2813,
      "ĠGrace": 2814,
      "Ġbarber": 2815,
      "Ġviol": 2816,
      "Ġdinosaur": 2817,
      "Ġfoolish": 2818,
      "Ġexclaimed": 2819,
      "Ġunique": 2820,
      "How": 2821,
      "fic": 2822,
      "time": 2823,
      "ital": 2824,
      "era": 2825,
      "Ġcross": 2826,
      "Ġoat": 2827,
      "ath": 2828,
      "Ġnumber": 2829,
      "Ġrough": 2830,
      "Ġsharing": 2831,
      "Ġjam": 2832,
      "Ġworking": 2833,
      "iff": 2834,
      "Ġswan": 2835,
      "ĠFin": 2836,
      "Ġshowing": 2837,
      "Ġraced": 2838,
      "ĠdonÃ¢": 2839,
      "Ġeye": 2840,
      "Ġuseful": 2841,
      "Ġmighty": 2842,
      "Ġbarked": 2843,
      "Ġchose": 2844,
      "Ġbathroom": 2845,
      "Ġleaving": 2846,
      "Ġserious": 2847,
      "Ġignorant": 2848,
      "Ġsafely": 2849,
      "Ġvaluable": 2850,
      "Ġguilty": 2851,
      "ha": 2852,
      "Ġer": 2853,
      "head": 2854,
      "Ġsy": 2855,
      "anger": 2856,
      "ĠLe": 2857,
      "Ġjelly": 2858,
      "Ġsell": 2859,
      "ief": 2860,
      "Ġpray": 2861,
      "Ġsaying": 2862,
      "Ġhosp": 2863,
      "Ġmov": 2864,
      "Ġstring": 2865,
      "Ġtea": 2866,
      "Ġenjoying": 2867,
      "Ġwrote": 2868,
      "Ġcrab": 2869,
      "Ġprint": 2870,
      "Ġtrick": 2871,
      "Ġboring": 2872,
      "Ġcircle": 2873,
      "Ġtears": 2874,
      "Ġfinger": 2875,
      "ĠMaria": 2876,
      "Ġashamed": 2877,
      "Ġregular": 2878,
      "Ġsuggested": 2879,
      "Ġdolphin": 2880,
      "Ġviolin": 2881,
      "Ġhospital": 2882,
      "Who": 2883,
      "aw": 2884,
      "com": 2885,
      "Ġhum": 2886,
      "Ġfake": 2887,
      "Ġpay": 2888,
      "Ġmir": 2889,
      "ĠSometimes": 2890,
      "etit": 2891,
      "ilt": 2892,
      "Ġeld": 2893,
      "Ġears": 2894,
      "ĠTeddy": 2895,
      "ĠBl": 2896,
      "Ġseem": 2897,
      "Ġlaund": 2898,
      "aser": 2899,
      "Ġtwist": 2900,
      "Ġquite": 2901,
      "Ġoffice": 2902,
      "Ġglue": 2903,
      "Ġwarned": 2904,
      "Ġdiffic": 2905,
      "Ġrubb": 2906,
      "Ġsett": 2907,
      "Ġforgive": 2908,
      "Ġmarble": 2909,
      "Ġpointing": 2910,
      "Ġpersist": 2911,
      "Ġobject": 2912,
      "Ġkitty": 2913,
      "Ġbottom": 2914,
      "Ġimagined": 2915,
      "Ġsuccessful": 2916,
      "Ġflashlight": 2917,
      "Ġlaundry": 2918,
      "ipper": 2919,
      "ls": 2920,
      "lower": 2921,
      "Ġwake": 2922,
      "Ġhurry": 2923,
      "render": 2924,
      "Ġitself": 2925,
      "Ġthose": 2926,
      "aled": 2927,
      "Ġchar": 2928,
      "Ġlearning": 2929,
      "selves": 2930,
      "Ġpatch": 2931,
      "Ġzoo": 2932,
      "Ġshoot": 2933,
      "Ġcompetit": 2934,
      "Ġcandle": 2935,
      "Ġjuicy": 2936,
      "host": 2937,
      "Ġcourage": 2938,
      "Ġpractice": 2939,
      "Ġsugar": 2940,
      "Ġbalance": 2941,
      "Ġtough": 2942,
      "Ġdifficult": 2943,
      "Me": 2944,
      "bled": 2945,
      "ipping": 2946,
      "ror": 2947,
      "yal": 2948,
      "Ġwip": 2949,
      "Ġcush": 2950,
      "Ġgun": 2951,
      "enry": 2952,
      "Ġbeet": 2953,
      "Ġleash": 2954,
      "iest": 2955,
      "Ġknife": 2956,
      "Ġpole": 2957,
      "Ġpear": 2958,
      "Ġdogs": 2959,
      "Ġbeauty": 2960,
      "Ġloudly": 2961,
      "Ġdrawing": 2962,
      "osie": 2963,
      "Ġbored": 2964,
      "Ġspray": 2965,
      "Ġadmired": 2966,
      "Ġcrayon": 2967,
      "Ġsurrender": 2968,
      "Ġgasped": 2969,
      "Ġelder": 2970,
      "rank": 2971,
      "Ġbitter": 2972,
      "Ġcamp": 2973,
      "Ġmama": 2974,
      "Ġsauce": 2975,
      "ory": 2976,
      "adi": 2977,
      "Ġfork": 2978,
      "Ġdove": 2979,
      "ugg": 2980,
      "Ġspun": 2981,
      "Ġloyal": 2982,
      "onest": 2983,
      "Ġnosy": 2984,
      "ages": 2985,
      "Ġgrown": 2986,
      "Ġstranger": 2987,
      "Ġoffered": 2988,
      "Ġkindness": 2989,
      "ĠPlease": 2990,
      "Ġtowel": 2991,
      "ĠGo": 2992,
      "Ġgives": 2993,
      "aced": 2994,
      "Ġhorn": 2995,
      "Ġcupboard": 2996,
      "Ġshopkeeper": 2997,
      "Ġfruits": 2998,
      "ependent": 2999,
      "Ġbounce": 3000,
      "Ġmissed": 3001,
      "Ġinvited": 3002,
      "Ġeraser": 3003,
      "Ġpersistent": 3004,
      "See": 3005,
      "ext": 3006,
      "iv": 3007,
      "Ġaunt": 3008,
      "Ġwitch": 3009,
      "Ġmay": 3010,
      "anic": 3011,
      "Ġsold": 3012,
      "Ġweird": 3013,
      "Ġreve": 3014,
      "Ġresc": 3015,
      "uggled": 3016,
      "Ġroar": 3017,
      "Ġmemor": 3018,
      "Ġchain": 3019,
      "Ġsadly": 3020,
      "Ġbloom": 3021,
      "Ġpee": 3022,
      "Ġeng": 3023,
      "Ġsmaller": 3024,
      "Ġslipped": 3025,
      "Ġdeer": 3026,
      "Ġsquash": 3027,
      "Ġtrucks": 3028,
      "Ġcreate": 3029,
      "Ġrub": 3030,
      "Ġruined": 3031,
      "Ġprince": 3032,
      "Ġcompass": 3033,
      "Ġshape": 3034,
      "Ġthinking": 3035,
      "Ġtuna": 3036,
      "Ġtunne": 3037,
      "Ġnuts": 3038,
      "Ġgraceful": 3039,
      "Ġindependent": 3040,
      "Ġpirate": 3041,
      "can": 3042,
      "cil": 3043,
      "ubby": 3044,
      "vice": 3045,
      "Ġwand": 3046,
      "Ġhonest": 3047,
      "Ġpit": 3048,
      "Ġmap": 3049,
      "Ġghost": 3050,
      "Ġsoap": 3051,
      "oop": 3052,
      "Ġplayer": 3053,
      "acket": 3054,
      "illie": 3055,
      "Ġgoes": 3056,
      "Ġmeal": 3057,
      "Ġchubby": 3058,
      "Ġcoco": 3059,
      "Ġknight": 3060,
      "Ġblow": 3061,
      "Ġproudly": 3062,
      "Ġraft": 3063,
      "Ġending": 3064,
      "urtle": 3065,
      "Ġuncom": 3066,
      "Ġpup": 3067,
      "mbol": 3068,
      "Ġmetal": 3069,
      "Ġpencil": 3070,
      "Ġfootball": 3071,
      "Ġlegs": 3072,
      "Ġreminded": 3073,
      "Ġspeed": 3074,
      "Ġbubbles": 3075,
      "Ġflute": 3076,
      "Ġsymbol": 3077,
      "Ġmirror": 3078,
      "Ġelderly": 3079,
      "Ġcocoa": 3080,
      "Ġuncomfortable": 3081,
      "ffe": 3082,
      "xe": 3083,
      "ĠU": 3084,
      "heart": 3085,
      "Ġtent": 3086,
      "Ġtank": 3087,
      "Ġtummy": 3088,
      "Ġturtle": 3089,
      "Ġaxe": 3090,
      "Ġsudden": 3091,
      "Ġwagged": 3092,
      "Ġfountain": 3093,
      "Ġpump": 3094,
      "Ġpurse": 3095,
      "Ġham": 3096,
      "Ġwhale": 3097,
      "Ġboss": 3098,
      "Ġexper": 3099,
      "Ġjacket": 3100,
      "Ġclap": 3101,
      "Ġcane": 3102,
      "Ġcage": 3103,
      "Ġalert": 3104,
      "rop": 3105,
      "bborn": 3106,
      "ĠDucky": 3107,
      "Ġknot": 3108,
      "Ġpeek": 3109,
      "Ġenvel": 3110,
      "Ġtrunk": 3111,
      "Ġhanded": 3112,
      "Ġcompl": 3113,
      "Ġways": 3114,
      "Ġdrew": 3115,
      "ĠRosie": 3116,
      "Ġrestaur": 3117,
      "Ġvisited": 3118,
      "Ġsparkled": 3119,
      "Ġstubborn": 3120,
      "Stop": 3121,
      "ĠRemy": 3122,
      "Ġrestaurant": 3123,
      "Little": 3124,
      "dge": 3125,
      "oot": 3126,
      "yer": 3127,
      "Ġahead": 3128,
      "Ġhunt": 3129,
      "Ġlamp": 3130,
      "Ġcurt": 3131,
      "Ġdig": 3132,
      "Ġmask": 3133,
      "ĠSophie": 3134,
      "Ġshaking": 3135,
      "Ġrep": 3136,
      "Ġresist": 3137,
      "rag": 3138,
      "ĠMark": 3139,
      "arth": 3140,
      "Ġrode": 3141,
      "ĠWhile": 3142,
      "Ġmush": 3143,
      "Ġbuilt": 3144,
      "Ġfinding": 3145,
      "Ġgrandpa": 3146,
      "ĠEverything": 3147,
      "Ġadvice": 3148,
      "Ġdisg": 3149,
      "Ġdisag": 3150,
      "Ġunk": 3151,
      "Ġsweetheart": 3152,
      "Ġtelling": 3153,
      "Ġcrane": 3154,
      "Ġsmoke": 3155,
      "Ġsailor": 3156,
      "Ġborrow": 3157,
      "Ġpackage": 3158,
      "Ġlifted": 3159,
      "Ġorganized": 3160,
      "Ġparade": 3161,
      "Ġcheerful": 3162,
      "Ġmovie": 3163,
      "Ġcharming": 3164,
      "Ġpeeked": 3165,
      "Ġcurtain": 3166,
      "Ġmushroom": 3167,
      "cu": 3168,
      "ches": 3169,
      "ience": 3170,
      "not": 3171,
      "pet": 3172,
      "Ġtut": 3173,
      "Ġtied": 3174,
      "ince": 3175,
      "inal": 3176,
      "Ġped": 3177,
      "Ġoy": 3178,
      "Ġgate": 3179,
      "issed": 3180,
      "ense": 3181,
      "imney": 3182,
      "Ġthief": 3183,
      "iginal": 3184,
      "Ġstamp": 3185,
      "Ġrice": 3186,
      "ĠIf": 3187,
      "Ġshut": 3188,
      "Ġref": 3189,
      "ĠBet": 3190,
      "Ġbiggest": 3191,
      "ĠJames": 3192,
      "illa": 3193,
      "Ġloll": 3194,
      "Ġlean": 3195,
      "Ġnoisy": 3196,
      "Ġchimney": 3197,
      "Ġvase": 3198,
      "Ġcarpet": 3199,
      "Ġknob": 3200,
      "Ġcareless": 3201,
      "Ġpepper": 3202,
      "ĠcouldnÃ¢": 3203,
      "Ġener": 3204,
      "sely": 3205,
      "Ġneeds": 3206,
      "Ġoriginal": 3207,
      "Ġfamous": 3208,
      "Ġboxes": 3209,
      "ĠPe": 3210,
      "Ġframe": 3211,
      "ĠGeorge": 3212,
      "Ġbrighter": 3213,
      "olog": 3214,
      "Ġprep": 3215,
      "Ġsecond": 3216,
      "Ġbeef": 3217,
      "Ġcolours": 3218,
      "umbers": 3219,
      "Ġreturn": 3220,
      "Ġadmire": 3221,
      "Ġquestion": 3222,
      "Ġwrapped": 3223,
      "Ġlawyer": 3224,
      "Ġberries": 3225,
      "Ġharmless": 3226,
      "Ġcompassion": 3227,
      "Ġtunnel": 3228,
      "Ġdisgust": 3229,
      "hood": 3230,
      "nown": 3231,
      "oe": 3232,
      "ines": 3233,
      "inary": 3234,
      "Ġfu": 3235,
      "Ġfre": 3236,
      "Their": 3237,
      "ora": 3238,
      "ĠitÃ¢": 3239,
      "irit": 3240,
      "Ġnumbers": 3241,
      "Ġstri": 3242,
      "Ġplaced": 3243,
      "elp": 3244,
      "Ġhappiness": 3245,
      "Ġrepe": 3246,
      "Ġkissed": 3247,
      "ĠMittens": 3248,
      "Ġboot": 3249,
      "Ġcannot": 3250,
      "Ġrose": 3251,
      "Ġchanged": 3252,
      "Ġagainst": 3253,
      "ucked": 3254,
      "ÅĵYou": 3255,
      "Ġtwig": 3256,
      "Ġcats": 3257,
      "Ġclock": 3258,
      "Ġclosely": 3259,
      "Ġhandle": 3260,
      "Ġwolf": 3261,
      "Ġglass": 3262,
      "Ġteeth": 3263,
      "Ġimpro": 3264,
      "ipop": 3265,
      "Ġsniff": 3266,
      "Ġpainter": 3267,
      "ĠJoey": 3268,
      "Ġbutterflies": 3269,
      "Ġzeb": 3270,
      "Ġrubbed": 3271,
      "Ġdreaming": 3272,
      "Ġpushing": 3273,
      "Ġcomput": 3274,
      "Ġbelt": 3275,
      "Ġdoesn": 3276,
      "Ġcelebrated": 3277,
      "Ġspring": 3278,
      "Ġtroubled": 3279,
      "Ġearly": 3280,
      "Ġshrimp": 3281,
      "Ġspoke": 3282,
      "Ġapolog": 3283,
      "achel": 3284,
      "uzzy": 3285,
      "Ġengine": 3286,
      "Ġenvelope": 3287,
      "Ġtutor": 3288,
      "Ġoyster": 3289,
      "Ġlollipop": 3290,
      "Ġzebra": 3291,
      "bor": 3292,
      "ded": 3293,
      "lace": 3294,
      "Ġbark": 3295,
      "erce": 3296,
      "Ġhears": 3297,
      "Ġcone": 3298,
      "Ġpil": 3299,
      "Ġmaybe": 3300,
      "Ġsal": 3301,
      "angle": 3302,
      "iron": 3303,
      "Ġur": 3304,
      "amond": 3305,
      "ĠIÃ¢": 3306,
      "Ġhadn": 3307,
      "ĠTony": 3308,
      "Ġplayful": 3309,
      "chie": 3310,
      "âĤ¬.": 3311,
      "icop": 3312,
      "Ġmeas": 3313,
      "Ġcover": 3314,
      "Ġputs": 3315,
      "bbie": 3316,
      "Ġharder": 3317,
      "Ġfierce": 3318,
      "Ġfright": 3319,
      "Ġlights": 3320,
      "Ġhairy": 3321,
      "Ġbatter": 3322,
      "Ġhung": 3323,
      "Ġcounting": 3324,
      "Ġsub": 3325,
      "oomy": 3326,
      "Ġgiven": 3327,
      "Ġbarn": 3328,
      "Ġattic": 3329,
      "Ġpracticed": 3330,
      "Ġmiser": 3331,
      "Ġdiamond": 3332,
      "Ġcooking": 3333,
      "Ġnecklace": 3334,
      "Ġhelicop": 3335,
      "ÅĵItÃ¢": 3336,
      "Ġstraw": 3337,
      "Ġtwirled": 3338,
      "ĠBlue": 3339,
      "Ġwiped": 3340,
      "Ġbeetle": 3341,
      "cano": 3342,
      "Ġfresh": 3343,
      "Ġpilot": 3344,
      "Ġhelicopter": 3345,
      "Help": 3346,
      "Re": 3347,
      "pered": 3348,
      "vet": 3349,
      "Ġtrop": 3350,
      "Ġsna": 3351,
      "Ġfurt": 3352,
      "Ġcri": 3353,
      "ision": 3354,
      "lev": 3355,
      "Ġnature": 3356,
      "ents": 3357,
      "Ġshark": 3358,
      "ĠBaby": 3359,
      "tered": 3360,
      "Ġjet": 3361,
      "Ġclown": 3362,
      "ssible": 3363,
      "ĠElly": 3364,
      "Ġgets": 3365,
      "Ġvan": 3366,
      "Ġpost": 3367,
      "Ġgrin": 3368,
      "Ġmole": 3369,
      "Ġmoder": 3370,
      "Ġlearnt": 3371,
      "Ġevening": 3372,
      "Ġperm": 3373,
      "Ġdriving": 3374,
      "Ġdreams": 3375,
      "ggy": 3376,
      "Ġtreasures": 3377,
      "Ġspinning": 3378,
      "Ġcarrots": 3379,
      "Ġwhispered": 3380,
      "Ġchicken": 3381,
      "Ġtravel": 3382,
      "Ġsilver": 3383,
      "Ġmodest": 3384,
      "ĠBrown": 3385,
      "âĤ¬âĢľ": 3386,
      "Ġpumpkin": 3387,
      "Ġunknown": 3388,
      "Ġmiserable": 3389,
      "Ġmodern": 3390,
      "'ve": 3391,
      "fast": 3392,
      "nit": 3393,
      "ĠZ": 3394,
      "Ġpant": 3395,
      "Ġmild": 3396,
      "orilla": 3397,
      "Ġinsist": 3398,
      "ĠTed": 3399,
      "Ġweal": 3400,
      "alk": 3401,
      "Ġspirit": 3402,
      "Ġlocked": 3403,
      "Ġarg": 3404,
      "urch": 3405,
      "ict": 3406,
      "Ġstarting": 3407,
      "Ġleak": 3408,
      "iew": 3409,
      "Ġchase": 3410,
      "Ġchange": 3411,
      "Ġchoose": 3412,
      "Ġchasing": 3413,
      "ellig": 3414,
      "Ġdecide": 3415,
      "Ġview": 3416,
      "Ġpoppy": 3417,
      "Ġintellig": 3418,
      "Ġpale": 3419,
      "used": 3420,
      "Ġimpat": 3421,
      "Ġjoined": 3422,
      "Ġcleaned": 3423,
      "ĠRo": 3424,
      "Ġcomplet": 3425,
      "Ġrolling": 3426,
      "Ġattract": 3427,
      "Ġgrowing": 3428,
      "Ġbreakfast": 3429,
      "Ġdesign": 3430,
      "Ġharbor": 3431,
      "ĠLeo": 3432,
      "Ġdisgusting": 3433,
      "Ġfurther": 3434,
      "If": 3435,
      "cream": 3436,
      "night": 3437,
      "par": 3438,
      "ti": 3439,
      "Ġban": 3440,
      "Ġbet": 3441,
      "Ġbent": 3442,
      "Ġhay": 3443,
      "Ġled": 3444,
      "omed": 3445,
      "Ġnorm": 3446,
      "Ġlibr": 3447,
      "Ġspill": 3448,
      "Ġjolly": 3449,
      "Ġjail": 3450,
      "indy": 3451,
      "Ġsepar": 3452,
      "Ġallowed": 3453,
      "Ġthemselves": 3454,
      "Ġleop": 3455,
      "Ġsciss": 3456,
      "ĠFrank": 3457,
      "Ġenv": 3458,
      "Ġcloset": 3459,
      "Ġrare": 3460,
      "Ġcomfort": 3461,
      "Ġended": 3462,
      "Ġlouder": 3463,
      "Ġunpack": 3464,
      "Ġshouldn": 3465,
      "Ġhurts": 3466,
      "Ġzip": 3467,
      "Ġtells": 3468,
      "Ġlightning": 3469,
      "Ġtriangle": 3470,
      "Ġfurnit": 3471,
      "Ġminute": 3472,
      "Ġphot": 3473,
      "Ġeggs": 3474,
      "Ġbuttons": 3475,
      "Ġwrap": 3476,
      "Grandma": 3477,
      "Ġfishing": 3478,
      "Ġfuel": 3479,
      "Ġfrightened": 3480,
      "Ġtrophy": 3481,
      "Ġintelligent": 3482,
      "Ġimpatient": 3483,
      "Ġattractive": 3484,
      "Ġleopard": 3485,
      "Ġscissors": 3486,
      "Ġfurniture": 3487,
      "Sp": 3488,
      "ab": 3489,
      "cou": 3490,
      "lcano": 3491,
      "ym": 3492,
      "Ġiron": 3493,
      "Ġachie": 3494,
      "Ġsuff": 3495,
      "Ġcree": 3496,
      "Ġdug": 3497,
      "Ġmill": 3498,
      "arry": 3499,
      "Ġgorilla": 3500,
      "ĠHenry": 3501,
      "Ġbeg": 3502,
      "Ġstared": 3503,
      "Ġstairs": 3504,
      "Ġrat": 3505,
      "ĠLola": 3506,
      "ĠBear": 3507,
      "seum": 3508,
      "Ġscreen": 3509,
      "Ġscoot": 3510,
      "Ġchurch": 3511,
      "Ġvine": 3512,
      "Ġskill": 3513,
      "Ġvolcano": 3514,
      "Ġunl": 3515,
      "ngth": 3516,
      "Ġclapping": 3517,
      "ations": 3518,
      "Ġsparkling": 3519,
      "Ġswinging": 3520,
      "Ġcorn": 3521,
      "Ġmixer": 3522,
      "Ġstrength": 3523,
      "Ġpastel": 3524,
      "Ġmailbox": 3525,
      "Ġfeathers": 3526,
      "Ġfilthy": 3527,
      "Ġordinary": 3528,
      "Ġwishes": 3529,
      "Ġdestro": 3530,
      "Peter": 3531,
      "Sorry": 3532,
      "lu": 3533,
      "rn": 3534,
      "sit": 3535,
      "Ġing": 3536,
      "het": 3537,
      "Ġtem": 3538,
      "Ġsize": 3539,
      "inked": 3540,
      "Ġbake": 3541,
      "Ġhook": 3542,
      "res": 3543,
      "Ġfrag": 3544,
      "Ġgym": 3545,
      "Ġthread": 3546,
      "Ġhero": 3547,
      "Ġbean": 3548,
      "ceed": 3549,
      "Ġrug": 3550,
      "Ġyet": 3551,
      "Ġlicked": 3552,
      "ĠBella": 3553,
      "ugged": 3554,
      "ĠMy": 3555,
      "Ġisn": 3556,
      "Ġfasc": 3557,
      "Ġmuseum": 3558,
      "Ġvide": 3559,
      "Ġexplain": 3560,
      "Ġpaid": 3561,
      "Ġquar": 3562,
      "uct": 3563,
      "Ġanywhere": 3564,
      "aul": 3565,
      "Ġdiscu": 3566,
      "Ġsteal": 3567,
      "spap": 3568,
      "scope": 3569,
      "redient": 3570,
      "Ġpoint": 3571,
      "Ġblackboard": 3572,
      "Ġinclu": 3573,
      "Ġmystery": 3574,
      "Ġgiggle": 3575,
      "Everyone": 3576,
      "Ġjokes": 3577,
      "Ġclassroom": 3578,
      "Ġcushion": 3579,
      "Ġhammer": 3580,
      "Ġbossy": 3581,
      "Ġenergy": 3582,
      "Ġcomputer": 3583,
      "Ġsubway": 3584,
      "Ġnormal": 3585,
      "Ġlibrary": 3586,
      "Spot": 3587,
      "Ġdestroy": 3588,
      "Ġingredient": 3589,
      "\",": 3590,
      "act": 3591,
      "hic": 3592,
      "noon": 3593,
      "Ġbump": 3594,
      "Ġfat": 3595,
      "Ġfour": 3596,
      "Ġwashed": 3597,
      "Ġmelt": 3598,
      "Ġearth": 3599,
      "amber": 3600,
      "vest": 3601,
      "alley": 3602,
      "Ġshine": 3603,
      "ĠBird": 3604,
      "Ġkay": 3605,
      "ĠMike": 3606,
      "Ġspag": 3607,
      "Ġagree": 3608,
      "Ġmuff": 3609,
      "Ġmusc": 3610,
      "Ġchamber": 3611,
      "Ġnewspap": 3612,
      "Ġflag": 3613,
      "ĠDave": 3614,
      "Ġblowing": 3615,
      "Ġthoughtful": 3616,
      "Ġenorm": 3617,
      "Ġwriting": 3618,
      "Ġafternoon": 3619,
      "Ġdreamed": 3620,
      "phone": 3621,
      "Ġveil": 3622,
      "Ġvehic": 3623,
      "Ġsplit": 3624,
      "Ġprov": 3625,
      "Ġwheat": 3626,
      "Ġpige": 3627,
      "Ġharsh": 3628,
      "Ġdistant": 3629,
      "Ġsucceed": 3630,
      "Ġstretch": 3631,
      "Ġmicroscope": 3632,
      "Ġmicrophone": 3633,
      "Ġcompetitive": 3634,
      "Ġpants": 3635,
      "Ġwealthy": 3636,
      "hetti": 3637,
      "Ġquarrel": 3638,
      "Ġingredients": 3639,
      "Ġspaghetti": 3640,
      "Ġenormous": 3641,
      "Daisy": 3642,
      "Jim": 3643,
      "apped": 3644,
      "big": 3645,
      "ef": 3646,
      "flower": 3647,
      "gn": 3648,
      "hip": 3649,
      "lvet": 3650,
      "ses": 3651,
      "zor": 3652,
      "zag": 3653,
      "Ġsum": 3654,
      "Ġhoop": 3655,
      "ery": 3656,
      "Ġcur": 3657,
      "Ġcro": 3658,
      "Ġcell": 3659,
      "Ġpow": 3660,
      "Ġolive": 3661,
      "arlie": 3662,
      "igzag": 3663,
      "Ġstation": 3664,
      "Ġyach": 3665,
      "Ġyaw": 3666,
      "rick": 3667,
      "addy": 3668,
      "unately": 3669,
      "Ġshocked": 3670,
      "Ġreef": 3671,
      "Ġfriendship": 3672,
      "Ġscale": 3673,
      "Ġsomewhere": 3674,
      "Ġfactor": 3675,
      "Ġroared": 3676,
      "ĠWould": 3677,
      "Ġchirp": 3678,
      "Ġbridge": 3679,
      "Ġolder": 3680,
      "Ġpoison": 3681,
      "Ġblinked": 3682,
      "Ġpebble": 3683,
      "Ġskirt": 3684,
      "Ġtrade": 3685,
      "Ġoffer": 3686,
      "Ġrazor": 3687,
      "ement": 3688,
      "Ġneedle": 3689,
      "Ġglove": 3690,
      "Ġnowhere": 3691,
      "Ġamazement": 3692,
      "Ġcleaning": 3693,
      "Ġheaded": 3694,
      "Ġpatter": 3695,
      "Ġsweetie": 3696,
      "Ġfirework": 3697,
      "Ġfloating": 3698,
      "Ġvelvet": 3699,
      "Ġtries": 3700,
      "Ġcountry": 3701,
      "gging": 3702,
      "Ġobser": 3703,
      "astic": 3704,
      "Ġbounced": 3705,
      "Ġkicked": 3706,
      "Ġorganize": 3707,
      "Ġberry": 3708,
      "Ġstretched": 3709,
      "Ġcherry": 3710,
      "Ġnods": 3711,
      "ÅĵThatÃ¢": 3712,
      "Ġavo": 3713,
      "Ġfrowned": 3714,
      "Ġseeds": 3715,
      "Ġenvious": 3716,
      "Ġcreek": 3717,
      "Ġfragile": 3718,
      "Ġfascin": 3719,
      "bigail": 3720,
      "Ġyacht": 3721,
      "Ġfactory": 3722,
      "'.": 3723,
      "Ch": 3724,
      "Jenny": 3725,
      "eve": 3726,
      "gie": 3727,
      "lid": 3728,
      "pes": 3729,
      "ĠOK": 3730,
      "Ġcity": 3731,
      "ato": 3732,
      "ator": 3733,
      "Ġthirst": 3734,
      "Ġinf": 3735,
      "ung": 3736,
      "Ġrever": 3737,
      "Ġreco": 3738,
      "Ġreward": 3739,
      "urried": 3740,
      "Ġscare": 3741,
      "ĠdidnÃ¢": 3742,
      "Ġholid": 3743,
      "Ġencou": 3744,
      "ucet": 3745,
      "Ġsunset": 3746,
      "Ġcube": 3747,
      "Ġsandc": 3748,
      "Ġfloated": 3749,
      "Ġwindows": 3750,
      "Ġbags": 3751,
      "Ġreading": 3752,
      "Ġattention": 3753,
      "Ġquietly": 3754,
      "Ġimagination": 3755,
      "Ġcarrying": 3756,
      "Ġexamine": 3757,
      "Ġcherries": 3758,
      "Ġgolden": 3759,
      "Ġawe": 3760,
      "Ġrelaxed": 3761,
      "Ġrubber": 3762,
      "Ġrefres": 3763,
      "Ġcompassionate": 3764,
      "Ġbanana": 3765,
      "Ġsummer": 3766,
      "Ġpattern": 3767,
      "Ġholiday": 3768,
      "Are": 3769,
      "Ann": 3770,
      "az": 3771,
      "cut": 3772,
      "met": 3773,
      "now": 3774,
      "pid": 3775,
      "uzz": 3776,
      "xious": 3777,
      "Ġig": 3778,
      "Ġtire": 3779,
      "Ġtucked": 3780,
      "Ġtheater": 3781,
      "Ġbase": 3782,
      "ress": 3783,
      "Ġlend": 3784,
      "Ġcudd": 3785,
      "atue": 3786,
      "lend": 3787,
      "Ġnail": 3788,
      "Ġstatue": 3789,
      "ĠTr": 3790,
      "chanic": 3791,
      "Ġrece": 3792,
      "Ġanxious": 3793,
      "ecause": 3794,
      "ĠMay": 3795,
      "Ġclub": 3796,
      "reeze": 3797,
      "Ġmechanic": 3798,
      "Ġlaser": 3799,
      "Ġcoins": 3800,
      "Ġswamp": 3801,
      "Ġknown": 3802,
      "ĠJosh": 3803,
      "Ġsunflower": 3804,
      "Ġtray": 3805,
      "Ġbeak": 3806,
      "Ġcomb": 3807,
      "emo": 3808,
      "ĠCat": 3809,
      "Ġglow": 3810,
      "Ġgloomy": 3811,
      "Ġshoulder": 3812,
      "Ġjogged": 3813,
      "Ġclimbing": 3814,
      "Ġlistening": 3815,
      "Ġrules": 3816,
      "Ġhoping": 3817,
      "Ġsoftly": 3818,
      "Ġvend": 3819,
      "Ġguess": 3820,
      "Ġballoons": 3821,
      "Ġmeeting": 3822,
      "ĠTweetie": 3823,
      "Ġwandered": 3824,
      "Ġhelmet": 3825,
      "Emma": 3826,
      "Ġshells": 3827,
      "Ġriding": 3828,
      "Ġrepair": 3829,
      "Ġrepeat": 3830,
      "Ġpigeon": 3831,
      "Ġthirsty": 3832,
      "Ġigloo": 3833,
      "ging": 3834,
      "ron": 3835,
      "sing": 3836,
      "Ġsle": 3837,
      "Ġcam": 3838,
      "Ġdive": 3839,
      "Ġgoose": 3840,
      "Ġsoar": 3841,
      "ĠLilly": 3842,
      "Ġshade": 3843,
      "Ġshiver": 3844,
      "Ġrequ": 3845,
      "ĠMillie": 3846,
      "Ġspell": 3847,
      "Ġsport": 3848,
      "fume": 3849,
      "Ġnobody": 3850,
      "Ġworm": 3851,
      "Ġfaucet": 3852,
      "ĠWhere": 3853,
      "Ġvalley": 3854,
      "Ġbuzz": 3855,
      "ĠDanny": 3856,
      "Ġswitch": 3857,
      "Ġskipping": 3858,
      "ucture": 3859,
      "Ġstructure": 3860,
      "Ġpicks": 3861,
      "Ġbears": 3862,
      "ected": 3863,
      "Ġnicely": 3864,
      "ĠCar": 3865,
      "Ġdelay": 3866,
      "Ġdishes": 3867,
      "Ġperfume": 3868,
      "Ġshouting": 3869,
      "Ġcrow": 3870,
      "Ġtrash": 3871,
      "Ġbrothers": 3872,
      "Ġfloat": 3873,
      "ĠKate": 3874,
      "Ġpretending": 3875,
      "Ġcounted": 3876,
      "Ġcounter": 3877,
      "Ġfields": 3878,
      "Ġstupid": 3879,
      "ÅĵIÃ¢": 3880,
      "Ġwhistling": 3881,
      "Ġenth": 3882,
      "Ġsplashing": 3883,
      "Ġspoiled": 3884,
      "Ġeagerly": 3885,
      "Ġfolder": 3886,
      "Ġstirred": 3887,
      "Ġrevealed": 3888,
      "Ġmemories": 3889,
      "Ġcomplain": 3890,
      "Ġleaned": 3891,
      "Ġphoto": 3892,
      "Ġskills": 3893,
      "Ġnewspaper": 3894,
      "Ġrecogn": 3895,
      "Ġvendor": 3896,
      "Eventually": 3897,
      "ait": 3898,
      "ci": 3899,
      "cad": 3900,
      "loe": 3901,
      "ĊĠ": 3902,
      "Ġfan": 3903,
      "Ġlow": 3904,
      "Ġluck": 3905,
      "Ġpor": 3906,
      "Ġpra": 3907,
      "Ġpalm": 3908,
      "Ġpipe": 3909,
      "atch": 3910,
      "Ġsaus": 3911,
      "ĠSh": 3912,
      "Ġeff": 3913,
      "Ġsheep": 3914,
      "ooped": 3915,
      "Ġrot": 3916,
      "ric": 3917,
      "Ġshort": 3918,
      "ĠJu": 3919,
      "Ġlose": 3920,
      "Ġmanage": 3921,
      "Ġcoffe": 3922,
      "Ġputting": 3923,
      "Ġyours": 3924,
      "Ġshows": 3925,
      "inky": 3926,
      "Ġdeliver": 3927,
      "Ġmass": 3928,
      "ĠNemo": 3929,
      "Ġappro": 3930,
      "ĠRachel": 3931,
      "Thanks": 3932,
      "Ġcrazy": 3933,
      "Ġperfectly": 3934,
      "Ġairport": 3935,
      "Ġhaircut": 3936,
      "Ġmessage": 3937,
      "Ġthanks": 3938,
      "Ġmarry": 3939,
      "Ġunderstanding": 3940,
      "Ġbelow": 3941,
      "fortunately": 3942,
      "ĠFlo": 3943,
      "ailable": 3944,
      "Ġcreatures": 3945,
      "Ġbouncing": 3946,
      "Ġpastry": 3947,
      "Ġgifted": 3948,
      "Ġsurround": 3949,
      "Ġfingers": 3950,
      "Ġneighbourhood": 3951,
      "Ġavailable": 3952,
      "ĠClara": 3953,
      "Ġyogurt": 3954,
      "Ġprize": 3955,
      "Ġrescue": 3956,
      "Ġdisagreed": 3957,
      "Ġgrinned": 3958,
      "Ġscooter": 3959,
      "Ġkayak": 3960,
      "Ġvehicle": 3961,
      "Ġcamera": 3962,
      "Ġenthus": 3963,
      "Ġcoffee": 3964,
      "Mr": 3965,
      "Susie": 3966,
      "While": 3967,
      "Yay": 3968,
      "gen": 3969,
      "mother": 3970,
      "Ġbreeze": 3971,
      "ither": 3972,
      "Ġwashing": 3973,
      "Ġcries": 3974,
      "Ġpine": 3975,
      "Ġpitch": 3976,
      "Ġgum": 3977,
      "isk": 3978,
      "Ġhall": 3979,
      "ĠSnow": 3980,
      "any": 3981,
      "Ġitch": 3982,
      "Ġinvest": 3983,
      "ckey": 3984,
      "igate": 3985,
      "ĠIs": 3986,
      "Ġforth": 3987,
      "Ġweather": 3988,
      "ĠLook": 3989,
      "alph": 3990,
      "ĠMandy": 3991,
      "!\",": 3992,
      "Ġnotice": 3993,
      "Ġart": 3994,
      "Ġtools": 3995,
      "Ġscat": 3996,
      "Ġscrew": 3997,
      "Ġmule": 3998,
      "Ġhockey": 3999,
      "Ġtrump": 4000,
      "Ġballs": 4001,
      "Ġdressed": 4002,
      "ips": 4003,
      "Ġsnuggled": 4004,
      "Ġblueberry": 4005,
      "Ġboats": 4006,
      "Ġtrap": 4007,
      "Ġsleeping": 4008,
      "Ġpressed": 4009,
      "Ġdrawer": 4010,
      "Ġcooler": 4011,
      "Ġmarched": 4012,
      "Ġsuper": 4013,
      "Ġstud": 4014,
      "Ġsnowman": 4015,
      "Ġincre": 4016,
      "ĠChirp": 4017,
      "Ġbene": 4018,
      "Ġimpress": 4019,
      "Ġlemonade": 4020,
      "Emily": 4021,
      "Ġyoga": 4022,
      "ĠAnnie": 4023,
      "Ġstrawberry": 4024,
      "Ġspilled": 4025,
      "Ġfascinated": 4026,
      "Ġinfant": 4027,
      "Ġrequest": 4028,
      "Ġeffort": 4029,
      "Ġtrumpet": 4030,
      "With": 4031,
      "Will": 4032,
      "af": 4033,
      "case": 4034,
      "eed": 4035,
      "nam": 4036,
      "nfortunately": 4037,
      "zing": 4038,
      "Ġsent": 4039,
      "Ġwire": 4040,
      "inking": 4041,
      "Ġhut": 4042,
      "rella": 4043,
      "reci": 4044,
      "Ġlid": 4045,
      "Ġhesit": 4046,
      "Ġcop": 4047,
      "Ġpian": 4048,
      "Ġthu": 4049,
      "Ġnurse": 4050,
      "Ġumb": 4051,
      "Ġbeamed": 4052,
      "Ġonion": 4053,
      "Ġspike": 4054,
      "Ġgoal": 4055,
      "urb": 4056,
      "Ġhelpless": 4057,
      "Ġcalend": 4058,
      "aggie": 4059,
      "Ġswe": 4060,
      "Ġanyway": 4061,
      "ĠPat": 4062,
      "Ġstove": 4063,
      "Ġappreci": 4064,
      "Ġzipper": 4065,
      "Ġcere": 4066,
      "Ġceiling": 4067,
      "Ġdisturb": 4068,
      "ĠChloe": 4069,
      "Ġspeak": 4070,
      "Ġpeanuts": 4071,
      "Ġmistakes": 4072,
      "Ġwhisper": 4073,
      "Ġchickens": 4074,
      "Ġticket": 4075,
      "Ġpopular": 4076,
      "Ġpoured": 4077,
      "Ġsettle": 4078,
      "Ġshooting": 4079,
      "Ġsalad": 4080,
      "Ġseparate": 4081,
      "Ġslept": 4082,
      "Ġmassage": 4083,
      "ĠSnowy": 4084,
      "Ġinvestigate": 4085,
      "Ġbeneath": 4086,
      "Ġpiano": 4087,
      "Ġumbrella": 4088,
      "Ġcalendar": 4089,
      "All": 4090,
      "Because": 4091,
      "Go": 4092,
      "Is": 4093,
      "Mandy": 4094,
      "aff": 4095,
      "cense": 4096,
      "lier": 4097,
      "ues": 4098,
      "was": 4099,
      "nda": 4100,
      "Ġmention": 4101,
      "aroo": 4102,
      "arian": 4103,
      "Ġgro": 4104,
      "Ġgust": 4105,
      "Ġgear": 4106,
      "ising": 4107,
      "ates": 4108,
      "Ġsaving": 4109,
      "stairs": 4110,
      "una": 4111,
      "Ġhappier": 4112,
      "Ġshadow": 4113,
      "Ġlicense": 4114,
      "Ġkang": 4115,
      "icing": 4116,
      "iches": 4117,
      "ĠElla": 4118,
      "Ġlab": 4119,
      "Ġchance": 4120,
      "Ġpeach": 4121,
      "Ġtwink": 4122,
      "Ġquit": 4123,
      "ĠCindy": 4124,
      "ĠPaul": 4125,
      "Ġteleph": 4126,
      "Ġrabbits": 4127,
      "Ġtremb": 4128,
      "Ġcreated": 4129,
      "Ġmeans": 4130,
      "berries": 4131,
      "Ġsuitc": 4132,
      "Ġpetals": 4133,
      "Ġfallen": 4134,
      "Ġimagine": 4135,
      "Ġadmir": 4136,
      "Ġsolved": 4137,
      "Ġearlier": 4138,
      "Ġpolish": 4139,
      "Ġcollecting": 4140,
      "Ġmissing": 4141,
      "Inside": 4142,
      "Ġpassport": 4143,
      "Ġburn": 4144,
      "ĠFreddy": 4145,
      "Ġbandage": 4146,
      "Today": 4147,
      "Ġringing": 4148,
      "Ġlively": 4149,
      "Ġfearful": 4150,
      "Ġsneeze": 4151,
      "Ġdishwas": 4152,
      "Ġhunter": 4153,
      "Ġimprove": 4154,
      "Ġcrib": 4155,
      "Ġavocad": 4156,
      "Ġimpressive": 4157,
      "Ġkangaroo": 4158,
      "Ġtelephone": 4159,
      "Ġdishwasher": 4160,
      "By": 4161,
      "Next": 4162,
      "Would": 4163,
      "ah": 4164,
      "gu": 4165,
      "ib": 4166,
      "ibb": 4167,
      "iately": 4168,
      "low": 4169,
      "ween": 4170,
      "Ġten": 4171,
      "Ġwife": 4172,
      "Ġtooth": 4173,
      "Ġfive": 4174,
      "Ġfine": 4175,
      "erc": 4176,
      "erry": 4177,
      "Ġhedge": 4178,
      "Ġdough": 4179,
      "ayla": 4180,
      "net": 4181,
      "Ġherb": 4182,
      "Ġink": 4183,
      "Ġnation": 4184,
      "ppers": 4185,
      "Ġradi": 4186,
      "stic": 4187,
      "Ġplastic": 4188,
      "itten": 4189,
      "Ġfort": 4190,
      "Ġneat": 4191,
      "Ġres": 4192,
      "Ġlick": 4193,
      "ores": 4194,
      "Ġexerc": 4195,
      "Ġspade": 4196,
      "icer": 4197,
      "ĠAbigail": 4198,
      "Ġseeing": 4199,
      "ĠWill": 4200,
      "ason": 4201,
      "Ġcost": 4202,
      "uddy": 4203,
      "Ġknock": 4204,
      "Ġpopped": 4205,
      "Ġpaused": 4206,
      "ÅĵLook": 4207,
      "Ġshower": 4208,
      "iastic": 4209,
      "Ġbravely": 4210,
      "Ġdancer": 4211,
      "Ġbookcase": 4212,
      "Ġzigzag": 4213,
      "Ġbehave": 4214,
      "Benny": 4215,
      "Ġtaller": 4216,
      "mediately": 4217,
      "Ġbread": 4218,
      "Ġbarrel": 4219,
      "Ġpengu": 4220,
      "Ġcrawl": 4221,
      "Ġletters": 4222,
      "Ġmissile": 4223,
      "Ġcows": 4224,
      "Ġburning": 4225,
      "Ġsandwiches": 4226,
      "Ġmotorcy": 4227,
      "Ġsupply": 4228,
      "Ġsupport": 4229,
      "Together": 4230,
      "Daddy": 4231,
      "Ġmodel": 4232,
      "Ġfilm": 4233,
      "Ġaccepted": 4234,
      "Ġsqueeze": 4235,
      "Ġcartoon": 4236,
      "Ġhumble": 4237,
      "Ġexperience": 4238,
      "ĠPeople": 4239,
      "Ġboots": 4240,
      "Ġurge": 4241,
      "Ġinsisted": 4242,
      "Ġcomplete": 4243,
      "Ġbetween": 4244,
      "Ġbegin": 4245,
      "Ġcrossed": 4246,
      "Ġchirping": 4247,
      "Ġpraised": 4248,
      "Ġenthusiastic": 4249,
      "Ġcereal": 4250,
      "Ġradio": 4251,
      "Ġmotorcycle": 4252,
      "..": 4253,
      "Mark": 4254,
      "astle": 4255,
      "corn": 4256,
      "ges": 4257,
      "nger": 4258,
      "rise": 4259,
      "Ġsimp": 4260,
      "Ġwing": 4261,
      "Ġwipe": 4262,
      "inarian": 4263,
      "Ġbin": 4264,
      "Ġtorn": 4265,
      "Ġhous": 4266,
      "Ġcre": 4267,
      "uth": 4268,
      "celet": 4269,
      "Ġsheet": 4270,
      "Ġstack": 4271,
      "Ġshamp": 4272,
      "hter": 4273,
      "robe": 4274,
      "Ġnovel": 4275,
      "play": 4276,
      "Ġmakeup": 4277,
      "Ġpride": 4278,
      "Ġpossible": 4279,
      "Ġlaughter": 4280,
      "Ġpeppers": 4281,
      "Ġsunlight": 4282,
      "Ġtruth": 4283,
      "Ġraise": 4284,
      "Ġornam": 4285,
      "Here": 4286,
      "Ġdisplay": 4287,
      "Ġunha": 4288,
      "ĠNora": 4289,
      "Ġperched": 4290,
      "Ġrestless": 4291,
      "Ġmoments": 4292,
      "Ġvest": 4293,
      "eterinarian": 4294,
      "Ġmarried": 4295,
      "Ġlaughs": 4296,
      "Ġwelcomed": 4297,
      "Ġinstr": 4298,
      "Ġcrawling": 4299,
      "Ġapart": 4300,
      "Ġapron": 4301,
      "ĠSteve": 4302,
      "Ġdiary": 4303,
      "Ġignored": 4304,
      "Ġpaws": 4305,
      "Ġhanging": 4306,
      "Ġbracelet": 4307,
      "Ġstraight": 4308,
      "Ġspending": 4309,
      "Ġdecorate": 4310,
      "Ġpopcorn": 4311,
      "uggling": 4312,
      "Ġsoldier": 4313,
      "Ġcurtains": 4314,
      "ĠBetty": 4315,
      "Ġdiscuss": 4316,
      "Ġapproached": 4317,
      "Ġgrocer": 4318,
      "Ġhouses": 4319,
      "Ġshampoo": 4320,
      "Ġunhappy": 4321,
      "Ok": 4322,
      "azz": 4323,
      "cage": 4324,
      "fa": 4325,
      "zer": 4326,
      "Ġsend": 4327,
      "Ġflex": 4328,
      "Ġpad": 4329,
      "Ġpun": 4330,
      "Ġga": 4331,
      "ĠSu": 4332,
      "ĠSee": 4333,
      "Ġthumb": 4334,
      "Ġbeside": 4335,
      "Ġshel": 4336,
      "Ġstom": 4337,
      "Ġstage": 4338,
      "Ġsofa": 4339,
      "Ġrake": 4340,
      "Ġrise": 4341,
      "kelet": 4342,
      "Ġweap": 4343,
      "ĠBill": 4344,
      "ĠMilly": 4345,
      "ĠJul": 4346,
      "ĠAn": 4347,
      "Ġhelps": 4348,
      "Ġstarts": 4349,
      "Ġalive": 4350,
      "Ġbirdcage": 4351,
      "ĠEach": 4352,
      "ĠWh": 4353,
      "iform": 4354,
      "Ġveterinarian": 4355,
      "usty": 4356,
      "ĠEveryday": 4357,
      "Ġpair": 4358,
      "Ġsunrise": 4359,
      "Ġknows": 4360,
      "Ġtrack": 4361,
      "Ġopera": 4362,
      "Ġchess": 4363,
      "Ġclearing": 4364,
      "Ġtelev": 4365,
      "Ġdeaf": 4366,
      "ĠGary": 4367,
      "Ġunite": 4368,
      "Ġuniform": 4369,
      "Ġappl": 4370,
      "Ġnightma": 4371,
      "Ġstickers": 4372,
      "Ġlions": 4373,
      "Ġsquirrels": 4374,
      "Ġhats": 4375,
      "Ġdisappear": 4376,
      "Ġcollar": 4377,
      "Ġbelongs": 4378,
      "Ġcollected": 4379,
      "Ġpinch": 4380,
      "Ġgrandmother": 4381,
      "Ġdecorations": 4382,
      "looking": 4383,
      "Ġoats": 4384,
      "Ġsniffed": 4385,
      "Ġmeasuring": 4386,
      "Ġvideo": 4387,
      "Ġobserve": 4388,
      "Ġsandcastle": 4389,
      "Ġthunder": 4390,
      "Ġtelevision": 4391,
      "Mar": 4392,
      "Tweet": 4393,
      "aid": 4394,
      "lt": 4395,
      "mend": 4396,
      "Ġbrick": 4397,
      "Ġdear": 4398,
      "oming": 4399,
      "ommend": 4400,
      "Ġgrill": 4401,
      "anna": 4402,
      "Ġstadi": 4403,
      "Ġstaff": 4404,
      "aded": 4405,
      "Ġweep": 4406,
      "Ġweighed": 4407,
      "chor": 4408,
      "Ġmoms": 4409,
      "Ġhappens": 4410,
      "ĠBig": 4411,
      "Ġanchor": 4412,
      "raged": 4413,
      "Ġloops": 4414,
      "ĠAre": 4415,
      "Ġnames": 4416,
      "Ġcase": 4417,
      "Ġfest": 4418,
      "icky": 4419,
      "Ġchores": 4420,
      "Ġvet": 4421,
      "Ġbury": 4422,
      "Ġpoked": 4423,
      "isten": 4424,
      "Ġhose": 4425,
      "ÅĵCan": 4426,
      "Ġdoggy": 4427,
      "ĠJacky": 4428,
      "Ġimmediately": 4429,
      "Ġfastest": 4430,
      "Ġkindly": 4431,
      "Ġcheek": 4432,
      "Ġuniver": 4433,
      "Ġsque": 4434,
      "Ġappear": 4435,
      "Ġgrey": 4436,
      "Johnny": 4437,
      "Ġbadly": 4438,
      "Ġmagnet": 4439,
      "Ġwarmth": 4440,
      "Ġraining": 4441,
      "Ġshoe": 4442,
      "Ġcutting": 4443,
      "Ġsuit": 4444,
      "Ġchoice": 4445,
      "Ġdiscovery": 4446,
      "Ġpotato": 4447,
      "Ġeasily": 4448,
      "Ġpatiently": 4449,
      "Ġaccom": 4450,
      "Ġentered": 4451,
      "Ġrecommend": 4452,
      "Ġzoomed": 4453,
      "Ġsteps": 4454,
      "Ġweeks": 4455,
      "Ġwheels": 4456,
      "Ġordered": 4457,
      "Ġsneezed": 4458,
      "Ġsqueezed": 4459,
      "Ġloaded": 4460,
      "Ġapologized": 4461,
      "Ġprovide": 4462,
      "Ġyawned": 4463,
      "Ġrefreshed": 4464,
      "Ġsuitcase": 4465,
      "Ġavocado": 4466,
      "Ġsimple": 4467,
      "keleton": 4468,
      "Ġweapon": 4469,
      "Ġstadium": 4470,
      "Give": 4471,
      "Jake": 4472,
      "ler": 4473,
      "ody": 4474,
      "ray": 4475,
      "Ġsince": 4476,
      "Ġwaist": 4477,
      "Ġfut": 4478,
      "Ġchat": 4479,
      "Ġmen": 4480,
      "Ġmel": 4481,
      "Ġoak": 4482,
      "imi": 4483,
      "ĠSunny": 4484,
      "orable": 4485,
      "Ġbeep": 4486,
      "Ġbegged": 4487,
      "Ġstro": 4488,
      "Ġsoil": 4489,
      "Ġribb": 4490,
      "ĠTilly": 4491,
      "Ġweigh": 4492,
      "ĠBeth": 4493,
      "ĠBuddy": 4494,
      "ĠIts": 4495,
      "rod": 4496,
      "Ġworth": 4497,
      "Ġworries": 4498,
      "Ġscold": 4499,
      "Ġrod": 4500,
      "ĠWho": 4501,
      "Ġcopper": 4502,
      "Ġnews": 4503,
      "Ġflapped": 4504,
      "Ġvent": 4505,
      "Ġfinds": 4506,
      "Ġkneel": 4507,
      "Ġintrod": 4508,
      "Ġstruggling": 4509,
      "Ġadorable": 4510,
      "Ġslip": 4511,
      "Ġslipper": 4512,
      "Ġorder": 4513,
      "Ġcheap": 4514,
      "Ġsurprises": 4515,
      "Ġconf": 4516,
      "ĠletÃ¢": 4517,
      "ĠGive": 4518,
      "ĠNext": 4519,
      "Ġzipped": 4520,
      "Ġsetting": 4521,
      "Ġfiref": 4522,
      "Ġtrail": 4523,
      "Ġdarkness": 4524,
      "Ġdrop": 4525,
      "ĠInst": 4526,
      "Ġpaints": 4527,
      "Ġplanted": 4528,
      "Andy": 4529,
      "laire": 4530,
      "Ġgathering": 4531,
      "Ġpresents": 4532,
      "Ġsneak": 4533,
      "Ġcardboard": 4534,
      "Ġexamined": 4535,
      "Ġflutter": 4536,
      "Ġstuffed": 4537,
      "Ġdestination": 4538,
      "Ġdiscovering": 4539,
      "Ġjellyfish": 4540,
      "Ġtwisted": 4541,
      "Ġprepare": 4542,
      "Ġsuffer": 4543,
      "Ġdestroyed": 4544,
      "Ġmuffin": 4545,
      "Ġpowder": 4546,
      "Ġporch": 4547,
      "Ġsurrounded": 4548,
      "ĠChirpy": 4549,
      "Ġexercise": 4550,
      "Ġpenguin": 4551,
      "Ġcrept": 4552,
      "Ġflexible": 4553,
      "Ġapplau": 4554,
      "Ġnightmare": 4555,
      "annah": 4556,
      "Ġfestiv": 4557,
      "Ġfuture": 4558,
      "Ġslippery": 4559,
      "James": 4560,
      "Mor": 4561,
      "Wait": 4562,
      "do": 4563,
      "dom": 4564,
      "momet": 4565,
      "ocer": 4566,
      "right": 4567,
      "ranny": 4568,
      "rmomet": 4569,
      "Ġtide": 4570,
      "Ġson": 4571,
      "Ġthermomet": 4572,
      "Ġbicy": 4573,
      "Ġtoile": 4574,
      "Ġdire": 4575,
      "Ġport": 4576,
      "arn": 4577,
      "Ġitem": 4578,
      "Ġequ": 4579,
      "Ġrag": 4580,
      "Ġrush": 4581,
      "Ġrhin": 4582,
      "Ġyarn": 4583,
      "riage": 4584,
      "adie": 4585,
      "enty": 4586,
      "allow": 4587,
      "Ġwanting": 4588,
      "ĠBuzz": 4589,
      "ĠMaddy": 4590,
      "Ġjug": 4591,
      "Ġjazz": 4592,
      "Ġnote": 4593,
      "Ġbackpack": 4594,
      "Ġcaut": 4595,
      "Ġcast": 4596,
      "Ġscar": 4597,
      "Ġscooped": 4598,
      "place": 4599,
      "Ġprune": 4600,
      "Ġflour": 4601,
      "Ġbuck": 4602,
      "Ġburied": 4603,
      "ĠDan": 4604,
      "antly": 4605,
      "Ġpanda": 4606,
      "uckily": 4607,
      "ÅĵNo": 4608,
      "ÅĵMommy": 4609,
      "ÅĵHello": 4610,
      "ĠYour": 4611,
      "Ġmyself": 4612,
      "ionary": 4613,
      "Ġoverjoy": 4614,
      "Ġprett": 4615,
      "Ġchecked": 4616,
      "Ġremain": 4617,
      "Ġthrowing": 4618,
      "Ġremembers": 4619,
      "Ġjogging": 4620,
      "Ġblueberries": 4621,
      "Ġmagaz": 4622,
      "Ġfollowing": 4623,
      "Ġsandbox": 4624,
      "Ġsmells": 4625,
      "Ġdrift": 4626,
      "Ġbathe": 4627,
      "Ġattach": 4628,
      "Ġgrowled": 4629,
      "Ġpracticing": 4630,
      "Ġeasier": 4631,
      "Ġproblems": 4632,
      "Ġshrink": 4633,
      "ĠCharlie": 4634,
      "Ġcooked": 4635,
      "Ġhuman": 4636,
      "Ġsettled": 4637,
      "Ġbattery": 4638,
      "ictionary": 4639,
      "Ġunlock": 4640,
      "Ġbumped": 4641,
      "Ġagreement": 4642,
      "Ġreverse": 4643,
      "iskers": 4644,
      "Ġtrembling": 4645,
      "Ġaccompl": 4646,
      "Ġfestival": 4647,
      "Moral": 4648,
      "oceros": 4649,
      "Ġthermometer": 4650,
      "Ġtoilet": 4651,
      "Ġrhinoceros": 4652,
      "Ġoverjoyed": 4653,
      "Ġmagazine": 4654,
      "aked": 4655,
      "abby": 4656,
      "ding": 4657,
      "drobe": 4658,
      "iar": 4659,
      "ĠOnce": 4660,
      "Ġskeleton": 4661,
      "Ġwaving": 4662,
      "Ġhon": 4663,
      "Ġlime": 4664,
      "Ġdictionary": 4665,
      "Ġpan": 4666,
      "These": 4667,
      "lle": 4668,
      "Ġsailing": 4669,
      "neath": 4670,
      "Ġinch": 4671,
      "igned": 4672,
      "Ġripe": 4673,
      "ĠLiz": 4674,
      "ĠLuna": 4675,
      "allen": 4676,
      "Ġreind": 4677,
      "Ġcaul": 4678,
      "Ġroaring": 4679,
      "Ġchir": 4680,
      "Ġchalk": 4681,
      "Ġchallen": 4682,
      "asis": 4683,
      "Ġflame": 4684,
      "bbled": 4685,
      "Ġvac": 4686,
      "Ġsword": 4687,
      "Ġfeelings": 4688,
      "Ġpoem": 4689,
      "Ġblouse": 4690,
      "ÅĵWe": 4691,
      "xture": 4692,
      "Ġwarning": 4693,
      "Ġwardrobe": 4694,
      "Ġkeeping": 4695,
      "ĠRed": 4696,
      "ĠRob": 4697,
      "Ġfrogs": 4698,
      "ĠEmmy": 4699,
      "ission": 4700,
      "Ġcrash": 4701,
      "Ġprevent": 4702,
      "Ġdrawings": 4703,
      "Ġdeeper": 4704,
      "ĠKayla": 4705,
      "Ġtripped": 4706,
      "Ġsparkles": 4707,
      "Ġguit": 4708,
      "ancing": 4709,
      "Ġcoloured": 4710,
      "Ġbreaks": 4711,
      "Ġfalling": 4712,
      "Ġfreezer": 4713,
      "Ġhearts": 4714,
      "Ġbringing": 4715,
      "Ġgigg": 4716,
      "Ġeagle": 4717,
      "Ġactiv": 4718,
      "Ġenter": 4719,
      "Ġshrugged": 4720,
      "Ġpuzzles": 4721,
      "Ġrespectful": 4722,
      "Ġslides": 4723,
      "Ġsocks": 4724,
      "Ġchewed": 4725,
      "Ġscru": 4726,
      "Ġselling": 4727,
      "Ġtricks": 4728,
      "Ġmarbles": 4729,
      "Ġtwigs": 4730,
      "Ġpermission": 4731,
      "lowly": 4732,
      "ĠWhiskers": 4733,
      "Ġreinde": 4734,
      "Ġcaulif": 4735,
      "Bobby": 4736,
      "First": 4737,
      "George": 4738,
      "Ouch": 4739,
      "ccol": 4740,
      "rig": 4741,
      "te": 4742,
      "ube": 4743,
      "vin": 4744,
      "ĠĠĊ": 4745,
      "Ġtube": 4746,
      "Ġtoast": 4747,
      "Ġlect": 4748,
      "Ġdess": 4749,
      "Ġmop": 4750,
      "Ġoasis": 4751,
      "omes": 4752,
      "Ġgain": 4753,
      "isf": 4754,
      "ides": 4755,
      "Ġhalf": 4756,
      "ĠHave": 4757,
      "Ġemer": 4758,
      "ĠHere": 4759,
      "ĠHelp": 4760,
      "Ġnone": 4761,
      "Ġstable": 4762,
      "Ġsoaring": 4763,
      "ĠyouÃ¢": 4764,
      "Ġweight": 4765,
      "Ġhappiest": 4766,
      "herman": 4767,
      "Ġshield": 4768,
      "Ġliqu": 4769,
      "ĠBun": 4770,
      "ĠBunny": 4771,
      "ĠMiss": 4772,
      "ĠJune": 4773,
      "Ġexact": 4774,
      "Ġcap": 4775,
      "Ġalright": 4776,
      "Ġbirdie": 4777,
      "agers": 4778,
      "Ġcob": 4779,
      "Ġeveryday": 4780,
      "Ġgotten": 4781,
      "Ġbecoming": 4782,
      "mand": 4783,
      "ÅĵOh": 4784,
      "Ġskull": 4785,
      "ĠJoy": 4786,
      "Ġadult": 4787,
      "Ġfog": 4788,
      "Ġorang": 4789,
      "Ġremained": 4790,
      "iously": 4791,
      "Ġideas": 4792,
      "Ġmaster": 4793,
      "hyth": 4794,
      "Ġdrain": 4795,
      "Ġbroccol": 4796,
      "Ġrested": 4797,
      "Ġfireman": 4798,
      "Ġtrains": 4799,
      "Ġpulling": 4800,
      "Ġforgave": 4801,
      "Ġsatisf": 4802,
      "ĠLetÃ¢": 4803,
      "Ġcompany": 4804,
      "Ġhills": 4805,
      "ĠwasnÃ¢": 4806,
      "Ġforgotten": 4807,
      "Ġmustache": 4808,
      "ancake": 4809,
      "Ġblankets": 4810,
      "Ġvillagers": 4811,
      "Ġsprink": 4812,
      "Ġsolut": 4813,
      "Ġwinter": 4814,
      "Ġmission": 4815,
      "Ġkicking": 4816,
      "Ġmachines": 4817,
      "ĠBefore": 4818,
      "Ġtasks": 4819,
      "ĠOlive": 4820,
      "Ġstudying": 4821,
      "Ġfisherman": 4822,
      "Before": 4823,
      "ĠBetsy": 4824,
      "Ġachieve": 4825,
      "Ġbeans": 4826,
      "ĠBirdy": 4827,
      "Ġencouraged": 4828,
      "Ġreceive": 4829,
      "Ġadmiring": 4830,
      "Ġcostum": 4831,
      "Ġornaments": 4832,
      "ĠJulia": 4833,
      "Ġbicycle": 4834,
      "Ġdirect": 4835,
      "Ġscarf": 4836,
      "Ġbuckle": 4837,
      "Ġguitar": 4838,
      "Ġreindeer": 4839,
      "Ġlecture": 4840,
      "Ġdessert": 4841,
      "Ġliquid": 4842,
      "Ġoranges": 4843,
      "hythm": 4844,
      "Ġbroccoli": 4845,
      "Ex": 4846,
      "Jen": 4847,
      "Lisa": 4848,
      "Ow": 4849,
      "cc": 4850,
      "fit": 4851,
      "nies": 4852,
      "oed": 4853,
      "oved": 4854,
      "uing": 4855,
      "ups": 4856,
      "xy": 4857,
      "Ġsink": 4858,
      "Ġsigh": 4859,
      "Ġtoes": 4860,
      "Ġwaff": 4861,
      "Ġhomes": 4862,
      "Ġlang": 4863,
      "Ġlumber": 4864,
      "Ġda": 4865,
      "Ġdaisy": 4866,
      "Ġoil": 4867,
      "Ġobe": 4868,
      "Ġoxy": 4869,
      "arm": 4870,
      "Ġgir": 4871,
      "Ġhanger": 4872,
      "Ġeither": 4873,
      "Ġstitch": 4874,
      "Ġrele": 4875,
      "seek": 4876,
      "ĠMat": 4877,
      "ĠMaggie": 4878,
      "ĠJerry": 4879,
      "Ġspit": 4880,
      "Ġtool": 4881,
      "agull": 4882,
      "Ġrang": 4883,
      "usted": 4884,
      "Ġdownstairs": 4885,
      "Ġholes": 4886,
      "ÅĵThank": 4887,
      "ÅĵWhy": 4888,
      "Ġtap": 4889,
      "ĠPo": 4890,
      "ĠPandy": 4891,
      "Ġglowing": 4892,
      "Ġunderneath": 4893,
      "ipment": 4894,
      "ĠBobo": 4895,
      "Ġtowers": 4896,
      "Ġdemand": 4897,
      "Ġwondering": 4898,
      "ĠGranny": 4899,
      "Ġreplace": 4900,
      "Ġuncle": 4901,
      "ffic": 4902,
      "ĠRu": 4903,
      "Ġsteam": 4904,
      "Ġsteak": 4905,
      "Ġbaking": 4906,
      "Ġopens": 4907,
      "Ġfireplace": 4908,
      "Ġtractor": 4909,
      "Ġtraffic": 4910,
      "ĠKing": 4911,
      "Ġstops": 4912,
      "Ġfixing": 4913,
      "Sammy": 4914,
      "Ġcandles": 4915,
      "osity": 4916,
      "Ġattached": 4917,
      "Ġfalls": 4918,
      "Ġbasketball": 4919,
      "Ġcelebration": 4920,
      "Ġbouncy": 4921,
      "Ġplanes": 4922,
      "Ġbreathe": 4923,
      "Ġwhistled": 4924,
      "Joey": 4925,
      "Ġentire": 4926,
      "Ġpuddles": 4927,
      "Ġspoil": 4928,
      "Ġserve": 4929,
      "Ġzooming": 4930,
      "Ġvalue": 4931,
      "Ġtrusted": 4932,
      "Ġscratch": 4933,
      "Ġrubbing": 4934,
      "Ġpearl": 4935,
      "Ġpedal": 4936,
      "Ġmeasured": 4937,
      "Ġpermit": 4938,
      "Ġincluded": 4939,
      "Ġmuscle": 4940,
      "Ġmuscles": 4941,
      "Ġcurled": 4942,
      "ĠTrue": 4943,
      "Ġrecognized": 4944,
      "Ġshadows": 4945,
      "ĠSuzy": 4946,
      "Ġmenu": 4947,
      "Ġscolded": 4948,
      "Ġventured": 4949,
      "ĠInstead": 4950,
      "Ġequipment": 4951,
      "Ġchallenge": 4952,
      "Ġvacation": 4953,
      "Ġlangu": 4954,
      "Ġobey": 4955,
      "Ġoxygen": 4956,
      "Al": 4957,
      "Alex": 4958,
      "Bet": 4959,
      "Cl": 4960,
      "Fl": 4961,
      "Lola": 4962,
      "Pete": 4963,
      "fy": 4964,
      "ived": 4965,
      "jam": 4966,
      "lb": 4967,
      "mm": 4968,
      "mble": 4969,
      "nal": 4970,
      "nie": 4971,
      "pers": 4972,
      "ring": 4973,
      "zen": 4974,
      "hest": 4975,
      "Ġtune": 4976,
      "Ġsir": 4977,
      "Ġwig": 4978,
      "Ġtonight": 4979,
      "Ġhurried": 4980,
      "Ġheel": 4981,
      "Ġwaste": 4982,
      "Ġduring": 4983,
      "Ġmug": 4984,
      "Ġgained": 4985,
      "atie": 4986,
      "ĠSure": 4987,
      "Ġthrill": 4988,
      "ety": 4989,
      "Ġelev": 4990,
      "Ġnavy": 4991,
      "Ġonwards": 4992,
      "Ġwhip": 4993,
      "Ġshot": 4994,
      "ĠBy": 4995,
      "ĠMon": 4996,
      "ĠMimi": 4997,
      "ĠJess": 4998,
      "Ġoutfit": 4999,
      "Ġgolf": 5000,
      "Ġseal": 5001,
      "Ġseagull": 5002,
      "ĠAbbie": 5003,
      "umble": 5004,
      "sses": 5005,
      "Ġcable": 5006,
      "Ġcapt": 5007,
      "Ġscurried": 5008,
      "Ġmeowed": 5009,
      "plane": 5010,
      "Ġlaid": 5011,
      "Ġdecision": 5012,
      "Ġflav": 5013,
      "bbing": 5014,
      "Ġbulb": 5015,
      "ĠFro": 5016,
      "Ġgrape": 5017,
      "Ġgrapes": 5018,
      "Ġpapers": 5019,
      "ÅĵDon": 5020,
      "ÅĵDo": 5021,
      "Ġknowled": 5022,
      "Ġstruggled": 5023,
      "Ġcomfy": 5024,
      "Ġeaten": 5025,
      "izes": 5026,
      "Ġglowed": 5027,
      "Ġwarn": 5028,
      "Ġwritten": 5029,
      "Ġcryst": 5030,
      "ĠRose": 5031,
      "Ġheads": 5032,
      "acy": 5033,
      "Ġfrozen": 5034,
      "Ġdrops": 5035,
      "Ġpulls": 5036,
      "avid": 5037,
      "Ġairplane": 5038,
      "ĠKim": 5039,
      "Ġparts": 5040,
      "Ġbowed": 5041,
      "Ġcomple": 5042,
      "Ġhorses": 5043,
      "Ġcups": 5044,
      "Ġmint": 5045,
      "Ġjournal": 5046,
      "Ġnapkin": 5047,
      "ĠwouldnÃ¢": 5048,
      "Ġplanet": 5049,
      "Ġneighbors": 5050,
      "Ġfigured": 5051,
      "Ġactually": 5052,
      "Ġsurf": 5053,
      "izzie": 5054,
      "Ġnetwork": 5055,
      "Ġreminder": 5056,
      "Ġfolded": 5057,
      "Ġexpected": 5058,
      "Ġsafety": 5059,
      "Ġbalancing": 5060,
      "Ġjewelry": 5061,
      "Ġsilent": 5062,
      "Ġcabinet": 5063,
      "ĠAlways": 5064,
      "Ġperformance": 5065,
      "Ġmarching": 5066,
      "Ġobjects": 5067,
      "Ġreveal": 5068,
      "Ġmemory": 5069,
      "Ġsnapped": 5070,
      "Ġcomforted": 5071,
      "Ġachieved": 5072,
      "Ġcountryside": 5073,
      "Ġsausages": 5074,
      "Ġstudied": 5075,
      "Ġdisturbed": 5076,
      "Bye": 5077,
      "Ġresult": 5078,
      "Ġitems": 5079,
      "Ġchirped": 5080,
      "Ġgiggling": 5081,
      "Ġcauliflower": 5082,
      "Ġexactly": 5083,
      "jamas": 5084,
      "Ġthrilled": 5085,
      "Ġelevator": 5086,
      "Ġknowledge": 5087,
      "Ha": 5088,
      "Kitty": 5089,
      "Luckily": 5090,
      "Ro": 5091,
      "Yum": 5092,
      "affe": 5093,
      "cake": 5094,
      "hh": 5095,
      "lings": 5096,
      "ollow": 5097,
      "ossible": 5098,
      "ple": 5099,
      "pite": 5100,
      "son": 5101,
      "walk": 5102,
      "you": 5103,
      "ĠV": 5104,
      "Ġtip": 5105,
      "Ġsway": 5106,
      "Ġbank": 5107,
      "Ġbare": 5108,
      "ita": 5109,
      "ites": 5110,
      "ities": 5111,
      "itely": 5112,
      "Ġfought": 5113,
      "Ġlugg": 5114,
      "Ġlines": 5115,
      "Ġpages": 5116,
      "ays": 5117,
      "atched": 5118,
      "ĠSlowly": 5119,
      "Ġevent": 5120,
      "Ġshed": 5121,
      "Ġstaring": 5122,
      "sters": 5123,
      "ĠLul": 5124,
      "Ġlip": 5125,
      "Ġlives": 5126,
      "Ġlips": 5127,
      "ĠBuzzy": 5128,
      "Ġann": 5129,
      "ĠJe": 5130,
      "Ġoutdo": 5131,
      "Ġnoteb": 5132,
      "icular": 5133,
      "Ġclick": 5134,
      "ĠcanÃ¢": 5135,
      "Ġalarm": 5136,
      "Ġworse": 5137,
      "Ġarea": 5138,
      "Ġranch": 5139,
      "Ġsadness": 5140,
      "Ġvroom": 5141,
      "Ġcaring": 5142,
      "Ġknelt": 5143,
      "Ġpajamas": 5144,
      "ÅĵMom": 5145,
      "ÅĵMy": 5146,
      "Ġpeered": 5147,
      "Ġanytime": 5148,
      "Ġraised": 5149,
      "ememb": 5150,
      "Ġjumps": 5151,
      "ĠClaire": 5152,
      "Ġimpossible": 5153,
      "ĠJohnson": 5154,
      "Ġletting": 5155,
      "ĠGreen": 5156,
      "Ġtremble": 5157,
      "Ġturning": 5158,
      "Ġshouts": 5159,
      "bee": 5160,
      "Ġcontain": 5161,
      "Ġwherever": 5162,
      "ĠSpike": 5163,
      "Ġperfor": 5164,
      "Ġcreating": 5165,
      "Ġhopes": 5166,
      "Ġclaw": 5167,
      "ths": 5168,
      "Ġprinted": 5169,
      "ĠKelly": 5170,
      "Ġparticular": 5171,
      "Ġshopping": 5172,
      "Ġshovel": 5173,
      "Ġelf": 5174,
      "Ġbelieved": 5175,
      "Ġsparkle": 5176,
      "Ġproper": 5177,
      "Ġneighbours": 5178,
      "Ġanswers": 5179,
      "Ġcupcake": 5180,
      "Ġhotel": 5181,
      "Ġlandscap": 5182,
      "Ġmonkeys": 5183,
      "Ġgifts": 5184,
      "Ġparked": 5185,
      "Ġlawn": 5186,
      "Ġregret": 5187,
      "Ġtravell": 5188,
      "Ġsights": 5189,
      "Ġarrows": 5190,
      "Ġpillows": 5191,
      "âĤ¬âĢĿ": 5192,
      "Ġcompetition": 5193,
      "Ġsprayed": 5194,
      "ĠGod": 5195,
      "ĠUnfortunately": 5196,
      "ÅĵYouÃ¢": 5197,
      "Ġunpacked": 5198,
      "abel": 5199,
      "Annie": 5200,
      "Ġbaseball": 5201,
      "Ġbuzzing": 5202,
      "Ġcrowd": 5203,
      "ĠJulie": 5204,
      "Ġscattered": 5205,
      "Ġsweater": 5206,
      "Ġinstruct": 5207,
      "Ġprettiest": 5208,
      "Ġactivities": 5209,
      "Ġgiraffe": 5210,
      "Ġcompleted": 5211,
      "Ġbarely": 5212,
      "Ġluggage": 5213,
      "ĠLulu": 5214,
      "Ġnotebook": 5215,
      "emember": 5216,
      "Ġlandscape": 5217,
      "!'": 5218,
      "Did": 5219,
      "Danny": 5220,
      "Mike": 5221,
      "Qu": 5222,
      "Ralph": 5223,
      "bug": 5224,
      "cited": 5225,
      "ccer": 5226,
      "fire": 5227,
      "gs": 5228,
      "iel": 5229,
      "vas": 5230,
      "web": 5231,
      "yan": 5232,
      "Ġtub": 5233,
      "Ġsings": 5234,
      "Ġsense": 5235,
      "Ġhate": 5236,
      "Ġfle": 5237,
      "Ġheat": 5238,
      "Ġcel": 5239,
      "Ġcous": 5240,
      "Ġdried": 5241,
      "Ġpanic": 5242,
      "Ġmi": 5243,
      "iding": 5244,
      "iders": 5245,
      "imy": 5246,
      "ored": 5247,
      "iliar": 5248,
      "Ġbeam": 5249,
      "Ġsore": 5250,
      "Ġsoared": 5251,
      "Ġsoccer": 5252,
      "Ġyucky": 5253,
      "Ġplays": 5254,
      "hero": 5255,
      "htub": 5256,
      "Ġreass": 5257,
      "ĠBee": 5258,
      "ĠBinky": 5259,
      "Ġweren": 5260,
      "Ġloving": 5261,
      "Ġsew": 5262,
      "Ġseason": 5263,
      "ssel": 5264,
      "?\",": 5265,
      "Ġcanvas": 5266,
      "Ġbrings": 5267,
      "Ġbrus": 5268,
      "Ġvict": 5269,
      "Ġswung": 5270,
      "Ġpoke": 5271,
      "ĠFurry": 5272,
      "ĠFuzzy": 5273,
      "Ġquiz": 5274,
      "Ġsung": 5275,
      "ishment": 5276,
      "izing": 5277,
      "Ġhardly": 5278,
      "Ġdoors": 5279,
      "Ġbedtime": 5280,
      "Ġrealize": 5281,
      "ĠRalph": 5282,
      "Ġtalent": 5283,
      "aches": 5284,
      "Ġtastes": 5285,
      "Ġsweets": 5286,
      "rence": 5287,
      "perature": 5288,
      "Ġsticker": 5289,
      "Ġcontinue": 5290,
      "Ġpress": 5291,
      "Ġbathtub": 5292,
      "Ġholds": 5293,
      "Ġcoral": 5294,
      "Ġjeep": 5295,
      "Ġelephants": 5296,
      "Ġpigs": 5297,
      "bbles": 5298,
      "Ġpasta": 5299,
      "Ġdrinks": 5300,
      "Ġignore": 5301,
      "Ġlemons": 5302,
      "Ġants": 5303,
      "Ġteaching": 5304,
      "ĠStar": 5305,
      "Ġkisses": 5306,
      "Ġstarfish": 5307,
      "ĠRex": 5308,
      "uzie": 5309,
      "ĠHowever": 5310,
      "Ġsurrendered": 5311,
      "Ġmayor": 5312,
      "Ġbloomed": 5313,
      "Ġpupil": 5314,
      "Ġdisagree": 5315,
      "Ġprepared": 5316,
      "Ġstrip": 5317,
      "Ġargue": 5318,
      "Ġtemperature": 5319,
      "Ġrepeats": 5320,
      "ĠFloppy": 5321,
      "Ġsuperhero": 5322,
      "Ġincrease": 5323,
      "Ġhesitated": 5324,
      "Ġappreciate": 5325,
      "Ġmentioned": 5326,
      "Ġbeginning": 5327,
      "Ġfluttering": 5328,
      "Ġcautiously": 5329,
      "rigued": 5330,
      "Ġcobweb": 5331,
      "Ġsolution": 5332,
      "Ġlanguage": 5333,
      "Ġcelery": 5334,
      "Fred": 5335,
      "Maddy": 5336,
      "Pe": 5337,
      "Sometimes": 5338,
      "Sophie": 5339,
      "abbit": 5340,
      "bul": 5341,
      "dled": 5342,
      "house": 5343,
      "ivery": 5344,
      "iers": 5345,
      "pected": 5346,
      "rance": 5347,
      "ubbles": 5348,
      "xpected": 5349,
      "Ġtugged": 5350,
      "Ġast": 5351,
      "Ġsip": 5352,
      "Ġsib": 5353,
      "Ġsigned": 5354,
      "Ġsizes": 5355,
      "Ġwine": 5356,
      "Ġtore": 5357,
      "Ġfir": 5358,
      "Ġlung": 5359,
      "Ġcott": 5360,
      "Ġdust": 5361,
      "Ġpal": 5362,
      "ari": 5363,
      "nexpected": 5364,
      "Ġnicer": 5365,
      "Ġunt": 5366,
      "Ġunexpected": 5367,
      "Ġbeat": 5368,
      "Ġsting": 5369,
      "ppies": 5370,
      "Ġrow": 5371,
      "Ġrust": 5372,
      "amie": 5373,
      "rior": 5374,
      "ĠLater": 5375,
      "chair": 5376,
      "ĠBoo": 5377,
      "uggle": 5378,
      "Ġbacked": 5379,
      "omething": 5380,
      "ddy": 5381,
      "Ġscore": 5382,
      "Ġmeat": 5383,
      "Ġmuddy": 5384,
      "Ġchip": 5385,
      "ĠDavid": 5386,
      "Ġlotion": 5387,
      "Ġintrigued": 5388,
      "ÅĵThis": 5389,
      "Ġpears": 5390,
      "uced": 5391,
      "Ġhowever": 5392,
      "Ġslimy": 5393,
      "ĠPenny": 5394,
      "Ġtease": 5395,
      "Ġwarrior": 5396,
      "Ġworks": 5397,
      "Ġworkers": 5398,
      "Ġsnuck": 5399,
      "ĠNot": 5400,
      "ĠNana": 5401,
      "Ġcuriosity": 5402,
      "Ġgreet": 5403,
      "Ġcontest": 5404,
      "Ġdifference": 5405,
      "ĠSpeed": 5406,
      "Ġfollows": 5407,
      "oline": 5408,
      "Ġladybug": 5409,
      "Ġzipping": 5410,
      "Ġcatching": 5411,
      "though": 5412,
      "Ġtrapped": 5413,
      "Ġmonsters": 5414,
      "Ġmoves": 5415,
      "Ġambul": 5416,
      "Ġdreamt": 5417,
      "Ġprec": 5418,
      "Ġfoxes": 5419,
      "Ġdrinking": 5420,
      "Ġvisiting": 5421,
      "Ġbuildings": 5422,
      "ĠwonÃ¢": 5423,
      "Ġarmchair": 5424,
      "Ġrelief": 5425,
      "ĠFlora": 5426,
      "elcome": 5427,
      "Ġteaches": 5428,
      "lasses": 5429,
      "Ġcelebrating": 5430,
      "Ġspeaking": 5431,
      "Ġprotected": 5432,
      "Ġescaped": 5433,
      "ĠMarg": 5434,
      "Ġfluttered": 5435,
      "Ġstirring": 5436,
      "Ġgrabs": 5437,
      "Ġrockets": 5438,
      "Grandpa": 5439,
      "Ġsliding": 5440,
      "Ġprayed": 5441,
      "Ġtricky": 5442,
      "Ġcushions": 5443,
      "Ġcampfire": 5444,
      "ĠUntil": 5445,
      "Ġdigging": 5446,
      "Ġstamps": 5447,
      "Ġcricket": 5448,
      "Ġcompletely": 5449,
      "Ġsuffered": 5450,
      "Ġpastels": 5451,
      "Ġmuffins": 5452,
      "Ġolives": 5453,
      "Charlie": 5454,
      "Ġnails": 5455,
      "Ġreceived": 5456,
      "Ġsausage": 5457,
      "ĠJudy": 5458,
      "Ġhallway": 5459,
      "Ġscatter": 5460,
      "Ġcartoons": 5461,
      "Ġdiscussing": 5462,
      "Ġgroceries": 5463,
      "Ġpunished": 5464,
      "Ġgaze": 5465,
      "Maria": 5466,
      "Ġscrubbed": 5467,
      "Ġdemanded": 5468,
      "Fluffy": 5469,
      "Ġcaptain": 5470,
      "Ġoutdoors": 5471,
      "Ġclaws": 5472,
      "Ġproperly": 5473,
      "Ġinstructions": 5474,
      "Ġsunglasses": 5475,
      "Ġsiblings": 5476,
      "Ġpalace": 5477,
      "Ġambulance": 5478,
      "Fin": 5479,
      "Henry": 5480,
      "Mmm": 5481,
      "Polly": 5482,
      "Rachel": 5483,
      "Remember": 5484,
      "Toby": 5485,
      "Unfortunately": 5486,
      "Ye": 5487,
      "men": 5488,
      "non": 5489,
      "wo": 5490,
      "yes": 5491,
      "helle": 5492,
      "Ġbill": 5493,
      "Ġtour": 5494,
      "Ġhi": 5495,
      "ito": 5496,
      "Ġcal": 5497,
      "Ġcards": 5498,
      "Ġpur": 5499,
      "Ġpancake": 5500,
      "Ġmater": 5501,
      "Ġmittens": 5502,
      "arter": 5503,
      "Ġgle": 5504,
      "isies": 5505,
      "immer": 5506,
      "ĠSuzie": 5507,
      "ĠSomething": 5508,
      "anced": 5509,
      "annon": 5510,
      "Ġthro": 5511,
      "vers": 5512,
      "Ġsty": 5513,
      "Ġsoak": 5514,
      "Ġyield": 5515,
      "ading": 5516,
      "adly": 5517,
      "ĠTina": 5518,
      "Ġweb": 5519,
      "ĠLarry": 5520,
      "ĠLizzie": 5521,
      "Ġsmarter": 5522,
      "Ġnect": 5523,
      "Ġrelease": 5524,
      "Ġreaches": 5525,
      "riends": 5526,
      "Ġexit": 5527,
      "Ġexha": 5528,
      "ĠItÃ¢": 5529,
      "Ġspiders": 5530,
      "icia": 5531,
      "ichelle": 5532,
      "ĠAbby": 5533,
      "Ġnoon": 5534,
      "ices": 5535,
      "ĠEll": 5536,
      "quito": 5537,
      "ases": 5538,
      "Your": 5539,
      "Ġflies": 5540,
      "Ġvowed": 5541,
      "Ġcarriage": 5542,
      "Ġswirl": 5543,
      "ĠFirst": 5544,
      "Ġtru": 5545,
      "Ġofficer": 5546,
      "ilda": 5547,
      "Ġwatered": 5548,
      "Ġbye": 5549,
      "emma": 5550,
      "izard": 5551,
      "Ġowned": 5552,
      "Ġdelivery": 5553,
      "ship": 5554,
      "sterday": 5555,
      "Ġacorn": 5556,
      "Ġcontro": 5557,
      "ĠRyan": 5558,
      "Afterwards": 5559,
      "Ġwooden": 5560,
      "Ġopening": 5561,
      "Ġcreation": 5562,
      "Ġarrive": 5563,
      "Ġcrunch": 5564,
      "Ġsticky": 5565,
      "Ġcras": 5566,
      "Ġsingle": 5567,
      "Ġmatches": 5568,
      "Ġpetted": 5569,
      "Ġsecrets": 5570,
      "Ġsidewalk": 5571,
      "Ġdesert": 5572,
      "Ġbikes": 5573,
      "Ġplanned": 5574,
      "Ġsitu": 5575,
      "Ġhealed": 5576,
      "Ġchairs": 5577,
      "Ġwinner": 5578,
      "Ġspoons": 5579,
      "Ġmailman": 5580,
      "Ġshrinking": 5581,
      "Ġrespons": 5582,
      "Ġpiles": 5583,
      "Ġinvit": 5584,
      "Ġinvite": 5585,
      "Ġserved": 5586,
      "Ġfolding": 5587,
      "Ġburned": 5588,
      "Ġsource": 5589,
      "Ġparrot": 5590,
      "Ġsupplies": 5591,
      "Ġmountains": 5592,
      "Ġpoliceman": 5593,
      "Grace": 5594,
      "Ġsilence": 5595,
      "Ġbrand": 5596,
      "Ġleader": 5597,
      "Ġrecording": 5598,
      "Ġindeed": 5599,
      "Ġrides": 5600,
      "ĠAlison": 5601,
      "Ġprice": 5602,
      "Ġsoldiers": 5603,
      "Ġrescued": 5604,
      "Ġrubs": 5605,
      "Ġgrandparent": 5606,
      "Ġstrike": 5607,
      "Ġimproved": 5608,
      "Ġapologize": 5609,
      "Ġbarking": 5610,
      "Ġurged": 5611,
      "Really": 5612,
      "ĠRobbie": 5613,
      "Ġtemple": 5614,
      "Ġvideos": 5615,
      "action": 5616,
      "Ġmelted": 5617,
      "Ġsucceeded": 5618,
      "Ġpowers": 5619,
      "Ġfireworks": 5620,
      "Ġpatterns": 5621,
      "ĠCatty": 5622,
      "Mrs": 5623,
      "Ġtickets": 5624,
      "Ġshelter": 5625,
      "Ġstomach": 5626,
      "Ġmelon": 5627,
      "Ġapplauded": 5628,
      "Ġdrifted": 5629,
      "Ġdaisies": 5630,
      "Ġreleased": 5631,
      "ĠMatt": 5632,
      "Ġcrystal": 5633,
      "Ġmixture": 5634,
      "Ġfirm": 5635,
      "Ġmateri": 5636,
      "Ġthroat": 5637,
      "Ġnectar": 5638,
      "Ġexhausted": 5639,
      ".'": 5640,
      "?'": 5641,
      "Bella": 5642,
      "Cindy": 5643,
      "Sandy": 5644,
      "Sadie": 5645,
      "bies": 5646,
      "bric": 5647,
      "gers": 5648,
      "len": 5649,
      "mallow": 5650,
      "ru": 5651,
      "sity": 5652,
      "squito": 5653,
      "tory": 5654,
      "uri": 5655,
      "va": 5656,
      "ÃĤ": 5657,
      "Ġti": 5658,
      "Ġtar": 5659,
      "Ġtug": 5660,
      "Ġwid": 5661,
      "edy": 5662,
      "Ġbang": 5663,
      "Ġbanged": 5664,
      "Ġtodd": 5665,
      "Ġtong": 5666,
      "Ġwags": 5667,
      "Ġfed": 5668,
      "ouie": 5669,
      "ern": 5670,
      "Ġcared": 5671,
      "Ġpage": 5672,
      "Ġmall": 5673,
      "Ġost": 5674,
      "inger": 5675,
      "arles": 5676,
      "ishing": 5677,
      "enise": 5678,
      "Ġthird": 5679,
      "ĠHop": 5680,
      "ĠHannah": 5681,
      "oni": 5682,
      "ots": 5683,
      "otty": 5684,
      "cky": 5685,
      "Ġstem": 5686,
      "Ġstair": 5687,
      "Ġstern": 5688,
      "Ġrhythm": 5689,
      "Ġhistory": 5690,
      "rich": 5691,
      "Ġplates": 5692,
      "ĠTy": 5693,
      "ĠTues": 5694,
      "ĠmomÃ¢": 5695,
      "Ġshown": 5696,
      "ĠBoth": 5697,
      "ĠBubbles": 5698,
      "ĠMaisy": 5699,
      "Ġboom": 5700,
      "Ġspear": 5701,
      "ighters": 5702,
      "opes": 5703,
      "Ġfash": 5704,
      "Ġfabric": 5705,
      "Ġchoo": 5706,
      "Ġchuck": 5707,
      "Ġbrid": 5708,
      "Ġbrushed": 5709,
      "Ġcoach": 5710,
      "ĠDotty": 5711,
      "ĠFollow": 5712,
      "ÅĵHi": 5713,
      "Ġtwice": 5714,
      "Ġmosquito": 5715,
      "Ġstrings": 5716,
      "Ġstruck": 5717,
      "Ġstrang": 5718,
      "Ġwilling": 5719,
      "Ġracing": 5720,
      "Ġrooms": 5721,
      "izon": 5722,
      "cts": 5723,
      "Ġexplorer": 5724,
      "ĠPudd": 5725,
      "Ġstolen": 5726,
      "Josh": 5727,
      "shmallow": 5728,
      "Ġvoices": 5729,
      "ĠNina": 5730,
      "Ġcolored": 5731,
      "Ġbites": 5732,
      "Ġyelling": 5733,
      "Ġpuppies": 5734,
      "ĠRabbit": 5735,
      "Ġusual": 5736,
      "itches": 5737,
      "Ġbabies": 5738,
      "Ġprinter": 5739,
      "Ġmarshmallow": 5740,
      "ĠTodd": 5741,
      "Ġhorizon": 5742,
      "Ġwallet": 5743,
      "ĠDoggy": 5744,
      "Ġpockets": 5745,
      "Ġfreeze": 5746,
      "Ġreluct": 5747,
      "Ġpacking": 5748,
      "Ġreaching": 5749,
      "Ġcreamy": 5750,
      "Ġcircus": 5751,
      "Ġneighborhood": 5752,
      "Ġsorted": 5753,
      "Ġentrance": 5754,
      "Ġrespond": 5755,
      "Ġdetermination": 5756,
      "Ġbones": 5757,
      "Ġburst": 5758,
      "Ġpleasure": 5759,
      "Ġvalued": 5760,
      "ĠBeep": 5761,
      "Ġtigers": 5762,
      "Ġbravery": 5763,
      "Ġadding": 5764,
      "ĠSomeone": 5765,
      "Ġshakes": 5766,
      "Ġgracefully": 5767,
      "Ġspaceship": 5768,
      "Ġcrackers": 5769,
      "Ġpouring": 5770,
      "However": 5771,
      "Ġreply": 5772,
      "Ġpedals": 5773,
      "ĠPeanut": 5774,
      "Ġbarks": 5775,
      "Ġsnap": 5776,
      "Ġvanished": 5777,
      "Ġargued": 5778,
      "omeday": 5779,
      "rnie": 5780,
      "Ġdiscussed": 5781,
      "Ġinclude": 5782,
      "Ġcurly": 5783,
      "Ġyawn": 5784,
      "Ġsports": 5785,
      "gency": 5786,
      "Ġitchy": 5787,
      "...": 5788,
      "Ġgrocery": 5789,
      "Ġtracks": 5790,
      "Ġuniverse": 5791,
      "Ġuniversity": 5792,
      "Ġsquealed": 5793,
      "Ġribbon": 5794,
      "Ġintroduced": 5795,
      "Ġfirefighters": 5796,
      "ĠDaniel": 5797,
      "Ġhonking": 5798,
      "Ġadults": 5799,
      "Ġsatisfied": 5800,
      "Ġwaffles": 5801,
      "Betty": 5802,
      "ÅĵDonÃ¢": 5803,
      "Ġsurface": 5804,
      "Happy": 5805,
      "Ġflea": 5806,
      "Ġcousin": 5807,
      "Ġvictory": 5808,
      "Ġprecious": 5809,
      "immering": 5810,
      "Ġcontrol": 5811,
      "Ġsituation": 5812,
      "Ġinvitation": 5813,
      "Ġostrich": 5814,
      "ĠTuesday": 5815,
      "Ġstrangers": 5816,
      "Ġmarshmallows": 5817,
      "Ġreluctantly": 5818,
      "Ah": 5819,
      "An": 5820,
      "Car": 5821,
      "Days": 5822,
      "Frank": 5823,
      "Kate": 5824,
      "Le": 5825,
      "Miss": 5826,
      "Maggie": 5827,
      "Papa": 5828,
      "Teddy": 5829,
      "Tony": 5830,
      "ae": 5831,
      "aven": 5832,
      "aret": 5833,
      "baby": 5834,
      "dri": 5835,
      "ien": 5836,
      "mato": 5837,
      "no": 5838,
      "nif": 5839,
      "osed": 5840,
      "uke": 5841,
      "use": 5842,
      "Ëľ": 5843,
      "Ġ1": 5844,
      "hello": 5845,
      "Ġsides": 5846,
      "innie": 5847,
      "Ġbother": 5848,
      "Ġtomato": 5849,
      "Ġfile": 5850,
      "ouble": 5851,
      "Ġdar": 5852,
      "Ġdare": 5853,
      "Ġmice": 5854,
      "Ġgon": 5855,
      "aty": 5856,
      "ĠSim": 5857,
      "Ġthir": 5858,
      "ĠHolly": 5859,
      "onas": 5860,
      "Ġinter": 5861,
      "Ġeast": 5862,
      "utty": 5863,
      "iggly": 5864,
      "Ġripped": 5865,
      "rie": 5866,
      "Ġplenty": 5867,
      "ĠTess": 5868,
      "ĠTaking": 5869,
      "ĠTabby": 5870,
      "Ġonward": 5871,
      "Ġforty": 5872,
      "essed": 5873,
      "child": 5874,
      "Ġshall": 5875,
      "Ġshock": 5876,
      "Ġshined": 5877,
      "htray": 5878,
      "ĠBow": 5879,
      "Ġashtray": 5880,
      "ĠJelly": 5881,
      "ĠJonas": 5882,
      "inda": 5883,
      "Ġseas": 5884,
      "âĤ¬Ëľ": 5885,
      "umm": 5886,
      "Ġhelper": 5887,
      "Ġsomebody": 5888,
      "Ġwhatever": 5889,
      "asm": 5890,
      "Ġflames": 5891,
      "Ġbudge": 5892,
      "ĠDina": 5893,
      "ĠFriends": 5894,
      "Ġgrant": 5895,
      "obody": 5896,
      "ÅĵHey": 5897,
      "ÅĵNow": 5898,
      "Ġtweet": 5899,
      "Ġtwenty": 5900,
      "ĠJose": 5901,
      "Ġquack": 5902,
      "iona": 5903,
      "othy": 5904,
      "Ġslap": 5905,
      "Ġslapped": 5906,
      "Ġteasing": 5907,
      "Ġconne": 5908,
      "Ġunderground": 5909,
      "Ġsnatched": 5910,
      "Ġwrites": 5911,
      "Ġgreedy": 5912,
      "Ġwaiter": 5913,
      "Ġrocked": 5914,
      "Ġhurting": 5915,
      "ngie": 5916,
      "Ġstorekeeper": 5917,
      "Ġimportance": 5918,
      "Jacky": 5919,
      "Ġusually": 5920,
      "Ġresting": 5921,
      "Ġrestore": 5922,
      "Ġcrumb": 5923,
      "Ġbeha": 5924,
      "Ġbehav": 5925,
      "Ġdresser": 5926,
      "Ġtallest": 5927,
      "Ġamount": 5928,
      "Ġhider": 5929,
      "Ġprinting": 5930,
      "boat": 5931,
      "Ġcolder": 5932,
      "ĠKe": 5933,
      "ĠKatie": 5934,
      "ĠGrand": 5935,
      "Ġpaintbr": 5936,
      "Ġbeloved": 5937,
      "Ġproject": 5938,
      "ments": 5939,
      "Ġguessed": 5940,
      "Ġhighest": 5941,
      "Ġplanning": 5942,
      "Ġpaths": 5943,
      "Ġpotion": 5944,
      "Ġinterested": 5945,
      "Ġsorting": 5946,
      "Ġinviting": 5947,
      "ĠJenna": 5948,
      "ĠStella": 5949,
      "Ġsafer": 5950,
      "Ġaccidents": 5951,
      "Ġhopeful": 5952,
      "Ġcheering": 5953,
      "ippin": 5954,
      "Ġkingdom": 5955,
      "ophia": 5956,
      "ÅĵWhatÃ¢": 5957,
      "Ġgrandbaby": 5958,
      "Ġgrandchild": 5959,
      "Ġthrows": 5960,
      "Ġlogs": 5961,
      "Ġsoapy": 5962,
      "Ġcomplained": 5963,
      "Ġseconds": 5964,
      "ĠBrownie": 5965,
      "Ġarguing": 5966,
      "ĠRover": 5967,
      "ĠRoger": 5968,
      "Ġseparated": 5969,
      "ably": 5970,
      "Ġunlocked": 5971,
      "Ġmelting": 5972,
      "Ġrefreshing": 5973,
      "Ġcuddle": 5974,
      "Ġrecognize": 5975,
      "Ġtwinkle": 5976,
      "Ġgazed": 5977,
      "Ġshelves": 5978,
      "Tweety": 5979,
      "Ġribbons": 5980,
      "Ġkneeled": 5981,
      "Ġconfident": 5982,
      "Ġcastles": 5983,
      "ĠRobin": 5984,
      "Ġemergency": 5985,
      "Ġcostume": 5986,
      "Clara": 5987,
      "Ġcottage": 5988,
      "Ġbillboard": 5989,
      "Ġglee": 5990,
      "Ġstyle": 5991,
      "Ġtruly": 5992,
      "Ġgonna": 5993,
      "Ġthirty": 5994,
      "Ġbehavi": 5995,
      "Boo": 5996,
      "Ducky": 5997,
      "During": 5998,
      "Hannah": 5999,
      "Liz": 6000,
      "Listen": 6001,
      "Sh": 6002,
      "Tilly": 6003,
      "Tina": 6004,
      "Uh": 6005,
      "Yuck": 6006,
      "ales": 6007,
      "aster": 6008,
      "apping": 6009,
      "bell": 6010,
      "cie": 6011,
      "fly": 6012,
      "ik": 6013,
      "ker": 6014,
      "lve": 6015,
      "lane": 6016,
      "liver": 6017,
      "ncle": 6018,
      "ris": 6019,
      "sure": 6020,
      "tress": 6021,
      "ude": 6022,
      "yla": 6023,
      "ylve": 6024,
      "Ġx": 6025,
      "ĠYes": 6026,
      "Ġaer": 6027,
      "Ġsomeday": 6028,
      "Ġwed": 6029,
      "Ġwow": 6030,
      "inter": 6031,
      "Ġhur": 6032,
      "Ġhated": 6033,
      "itude": 6034,
      "Ġfet": 6035,
      "eral": 6036,
      "Ġlily": 6037,
      "Ġcent": 6038,
      "Ġpout": 6039,
      "Ġmane": 6040,
      "iment": 6041,
      "ley": 6042,
      "ĠSun": 6043,
      "ĠSadie": 6044,
      "angled": 6045,
      "order": 6046,
      "ĠHarry": 6047,
      "Ġinse": 6048,
      "Ġech": 6049,
      "Ġbeard": 6050,
      "Ġstare": 6051,
      "Ġstitches": 6052,
      "Ġrising": 6053,
      "Ġrumble": 6054,
      "kes": 6055,
      "Ġupstairs": 6056,
      "Ġplain": 6057,
      "ĠTiny": 6058,
      "ĠTwo": 6059,
      "Ġonions": 6060,
      "espite": 6061,
      "ĠLinda": 6062,
      "chy": 6063,
      "Ġneare": 6064,
      "ĠBust": 6065,
      "Ġdolly": 6066,
      "ĠMel": 6067,
      "ĠMart": 6068,
      "Ġspook": 6069,
      "Ġlosing": 6070,
      "âĤ¬,": 6071,
      "ĠAc": 6072,
      "ĠAd": 6073,
      "Ġcliff": 6074,
      "Ġfeast": 6075,
      "dding": 6076,
      "Ġnodding": 6077,
      "ongo": 6078,
      "Ġscient": 6079,
      "Ġscamp": 6080,
      "Ġscurry": 6081,
      "oplane": 6082,
      "Ġfaced": 6083,
      "ĠEx": 6084,
      "ĠEarth": 6085,
      "ĠWiggly": 6086,
      "Ġchop": 6087,
      "ashed": 6088,
      "Ġdecl": 6089,
      "ĠDid": 6090,
      "ĠDenise": 6091,
      "Ġpoking": 6092,
      "ĠFire": 6093,
      "ĠFiona": 6094,
      "ÅĵSure": 6095,
      "pted": 6096,
      "Ġstruggle": 6097,
      "Ġfoc": 6098,
      "Ġracc": 6099,
      "Ġcub": 6100,
      "Ġfamiliar": 6101,
      "ĠPippin": 6102,
      "Ġfinal": 6103,
      "Ġglo": 6104,
      "Ġglitter": 6105,
      "shley": 6106,
      "Ġwonders": 6107,
      "ĠGet": 6108,
      "Ġkeeper": 6109,
      "Ġunf": 6110,
      "Ġunited": 6111,
      "Ġunco": 6112,
      "Ġunsure": 6113,
      "Ġbeds": 6114,
      "Ġjoking": 6115,
      "Ġafterwards": 6116,
      "Ġwaits": 6117,
      "Ġfoods": 6118,
      "Ġcoloring": 6119,
      "Ġwarmly": 6120,
      "Ġfilling": 6121,
      "Ġpatience": 6122,
      "Ġgrassy": 6123,
      "Ġspots": 6124,
      "Ġswims": 6125,
      "spe": 6126,
      "avin": 6127,
      "Ġpaintings": 6128,
      "Ġmattress": 6129,
      "Ġbreaking": 6130,
      "Ġreads": 6131,
      "Ġjoining": 6132,
      "Ġremembering": 6133,
      "Ġplanting": 6134,
      "astles": 6135,
      "Ġsailboat": 6136,
      "Ġdoctors": 6137,
      "ĠWithout": 6138,
      "Ġpennies": 6139,
      "Ġsolving": 6140,
      "Ġmarker": 6141,
      "Ġpolitely": 6142,
      "Ġsigns": 6143,
      "Ġfits": 6144,
      "Ġacted": 6145,
      "Ġactions": 6146,
      "Ġrecorder": 6147,
      "Ġpassing": 6148,
      "Ġexpress": 6149,
      "iana": 6150,
      "Ġseeker": 6151,
      "Ġbalanced": 6152,
      "Ġtested": 6153,
      "ĠBea": 6154,
      "ĠBecky": 6155,
      "Ġsupposed": 6156,
      "Ġmatching": 6157,
      "Ġjewels": 6158,
      "Ġbrain": 6159,
      "Ġedges": 6160,
      "Ġrecorded": 6161,
      "ĠClar": 6162,
      "ĠClown": 6163,
      "ĠClumsy": 6164,
      "Ġgems": 6165,
      "Ġtickle": 6166,
      "Ġwishing": 6167,
      "Ġwisdom": 6168,
      "ĠAlthough": 6169,
      "ĠFinny": 6170,
      "ĠBloom": 6171,
      "Ġcamping": 6172,
      "Ġexperien": 6173,
      "Ġmasks": 6174,
      "Ġstripes": 6175,
      "Rex": 6176,
      "Ready": 6177,
      "ĠZoe": 6178,
      "Ġpoints": 6179,
      "Ġstretching": 6180,
      "Ġrewarded": 6181,
      "Ġsandcastles": 6182,
      "Ġcuddled": 6183,
      "ĠMaya": 6184,
      "Ġdelayed": 6185,
      "ĠShannon": 6186,
      "ricane": 6187,
      "ĠIsabel": 6188,
      "Ġartist": 6189,
      "Ġincreased": 6190,
      "ĠPatrick": 6191,
      "Ġinstrum": 6192,
      "Ġpaddled": 6193,
      "Ġaccomplishment": 6194,
      "Ġdirection": 6195,
      "Excited": 6196,
      "ĠRussel": 6197,
      "ĠMona": 6198,
      "ĠFroggy": 6199,
      "Ġannoy": 6200,
      "Ġtravelling": 6201,
      "Quack": 6202,
      "Ġbrushes": 6203,
      "ĠMargaret": 6204,
      "Ġpurred": 6205,
      "Ġpancakes": 6206,
      "Ġgrandparents": 6207,
      "urious": 6208,
      "Ġtipt": 6209,
      "Ġtarget": 6210,
      "Ġtongue": 6211,
      "Ġchuckled": 6212,
      "Ġresponded": 6213,
      "Ġconnect": 6214,
      "ĠKeep": 6215,
      "iki": 6216,
      "ylvester": 6217,
      "Ġaeroplane": 6218,
      "Ġwedding": 6219,
      "Ġhurricane": 6220,
      "ĠBuster": 6221,
      "Ġspooky": 6222,
      "Ġscientist": 6223,
      "Ġscampered": 6224,
      "Ġraccoon": 6225,
      "Abigail": 6226,
      "Bill": 6227,
      "Millie": 6228,
      "Paul": 6229,
      "cope": 6230,
      "dies": 6231,
      "esterday": 6232,
      "fl": 6233,
      "jo": 6234,
      "munk": 6235,
      "nk": 6236,
      "rily": 6237,
      "water": 6238,
      "while": 6239,
      "Ãĥ": 6240,
      "Ġty": 6241,
      "Ġting": 6242,
      "Ġties": 6243,
      "Ġaff": 6244,
      "Ġwider": 6245,
      "Ġwizard": 6246,
      "Ġwagging": 6247,
      "Ġhoo": 6248,
      "Ġfant": 6249,
      "eri": 6250,
      "erma": 6251,
      "Ġheight": 6252,
      "Ġdared": 6253,
      "Ġdied": 6254,
      "Ġpist": 6255,
      "Ġpours": 6256,
      "Ġmerma": 6257,
      "Ġocc": 6258,
      "arper": 6259,
      "lect": 6260,
      "ĠSal": 6261,
      "ĠSqu": 6262,
      "ĠSweet": 6263,
      "ĠSund": 6264,
      "ĠSylvester": 6265,
      "anie": 6266,
      "anwhile": 6267,
      "Ġthreat": 6268,
      "Ġhers": 6269,
      "veral": 6270,
      "Ġnast": 6271,
      "Ġbead": 6272,
      "Ġsoaked": 6273,
      "oosh": 6274,
      "Ġrus": 6275,
      "Ġrisk": 6276,
      "Ġrusty": 6277,
      "Ġropes": 6278,
      "Ġyesterday": 6279,
      "Ġplaytime": 6280,
      "ĠĊĠ": 6281,
      "ĠLi": 6282,
      "ĠBumpy": 6283,
      "ĠBongo": 6284,
      "endy": 6285,
      "Ġdoves": 6286,
      "idey": 6287,
      "ĠgirlÃ¢": 6288,
      "ĠMe": 6289,
      "ĠMila": 6290,
      "ĠMany": 6291,
      "ĠMicky": 6292,
      "ĠMichelle": 6293,
      "ĠMeri": 6294,
      "Ġboards": 6295,
      "ĠJet": 6296,
      "ĠJana": 6297,
      "ĠJamie": 6298,
      "Ġspices": 6299,
      "Ġgoals": 6300,
      "Ġnotes": 6301,
      "Ġloc": 6302,
      "Ġseveral": 6303,
      "ica": 6304,
      "ĠAshley": 6305,
      "ssy": 6306,
      "Ġcash": 6307,
      "Ġleast": 6308,
      "Ġscra": 6309,
      "Ġscoop": 6310,
      "Ġscales": 6311,
      "Ġaren": 6312,
      "Ġago": 6313,
      "Ġfact": 6314,
      "Ġroot": 6315,
      "ĠErnie": 6316,
      "quake": 6317,
      "Ġflight": 6318,
      "Ġflood": 6319,
      "iles": 6320,
      "Ġhugging": 6321,
      "Ġgoodnight": 6322,
      "ĠDoug": 6323,
      "ĠDiana": 6324,
      "Ġswooped": 6325,
      "Ġposs": 6326,
      "Ġposit": 6327,
      "Ġgrabbing": 6328,
      "Ġexplo": 6329,
      "ÅĵSee": 6330,
      "Ġtwin": 6331,
      "ively": 6332,
      "ĠJackÃ¢": 6333,
      "Ġopin": 6334,
      "Ġoper": 6335,
      "aple": 6336,
      "ĠMaxi": 6337,
      "ĠPit": 6338,
      "ĠPam": 6339,
      "Ġglimmering": 6340,
      "Ġstole": 6341,
      "Ġteles": 6342,
      "Ġmailed": 6343,
      "Ġunw": 6344,
      "Ġshoulders": 6345,
      "ĠNick": 6346,
      "ĠNutty": 6347,
      "aker": 6348,
      "Ġcuriously": 6349,
      "Ġstrongest": 6350,
      "Ġpuff": 6351,
      "ĠRusty": 6352,
      "ĠRita": 6353,
      "ĠSpidey": 6354,
      "Ġheading": 6355,
      "Ġmagician": 6356,
      "Ġbroom": 6357,
      "Ġstew": 6358,
      "Ġsteel": 6359,
      "Ġsteady": 6360,
      "Ġfroze": 6361,
      "Ġrule": 6362,
      "Ġdresses": 6363,
      "Ġfiremen": 6364,
      "thank": 6365,
      "Ġmonths": 6366,
      "ĠThatÃ¢": 6367,
      "Ġsecure": 6368,
      "Ġpushes": 6369,
      "Ġbows": 6370,
      "Ġcompared": 6371,
      "Ġtouching": 6372,
      "Ġmarked": 6373,
      "Ġourselves": 6374,
      "Ġprove": 6375,
      "Ġmusician": 6376,
      "Ġguy": 6377,
      "Ġcord": 6378,
      "Ġgrowling": 6379,
      "Ġtails": 6380,
      "Ġdragonfly": 6381,
      "Ġtownspe": 6382,
      "Ġmineral": 6383,
      "Ġimagining": 6384,
      "Ġforgetting": 6385,
      "Ġkeys": 6386,
      "Ġembarrass": 6387,
      "Ġafar": 6388,
      "Ġorganizing": 6389,
      "Ġdiving": 6390,
      "Ġbandages": 6391,
      "Ġstirs": 6392,
      "ceptor": 6393,
      "ĠThanks": 6394,
      "Ġtraveled": 6395,
      "Ġtwirling": 6396,
      "ĠOut": 6397,
      "ĠBrother": 6398,
      "Ġtickled": 6399,
      "Ġdecorated": 6400,
      "Ġcoats": 6401,
      "Ġsneezing": 6402,
      "ĠAli": 6403,
      "Ġprick": 6404,
      "Ġsqueezing": 6405,
      "ĠLeave": 6406,
      "Ġprayer": 6407,
      "Ġmovies": 6408,
      "Ġpays": 6409,
      "Ġseems": 6410,
      "Ġtwisting": 6411,
      "Ġbeetles": 6412,
      "Ġspraying": 6413,
      "raging": 6414,
      "Ġbatteries": 6415,
      "ĠBluey": 6416,
      "Ġjailer": 6417,
      "Ġearthquake": 6418,
      "ĠMikey": 6419,
      "Ġencouraging": 6420,
      "azzy": 6421,
      "Ġshivering": 6422,
      "ĠCarl": 6423,
      "Ġscrewdri": 6424,
      "Ġstudents": 6425,
      "Ġefforts": 6426,
      "Ġspikes": 6427,
      "Ġtwinkling": 6428,
      "Ġadmiration": 6429,
      "Ġstomped": 6430,
      "ĠAnother": 6431,
      "Ġrecommended": 6432,
      "Ġintroduce": 6433,
      "Ġprunes": 6434,
      "Ġaccomplished": 6435,
      "Ġemerged": 6436,
      "Ġsprinkles": 6437,
      "Ġcostumes": 6438,
      "Ġflavor": 6439,
      "Ġplanets": 6440,
      "Ġperforming": 6441,
      "Ġreassured": 6442,
      "Ġpupils": 6443,
      "Peggy": 6444,
      "Ġrustling": 6445,
      "Ġchipmunk": 6446,
      "ĠEllie": 6447,
      "Ġcrunchy": 6448,
      "Ġfirmly": 6449,
      "Ġmaterials": 6450,
      "Ġwidened": 6451,
      "Ġfashion": 6452,
      "Ġbridges": 6453,
      "ĠPudding": 6454,
      "nifer": 6455,
      "Ġcrumbs": 6456,
      "Ġpaintbrush": 6457,
      "ĠAcceptor": 6458,
      "Ġscurrying": 6459,
      "Ġexperienced": 6460,
      "Ġtiptoed": 6461,
      "Ġfantastic": 6462,
      "Ġpistol": 6463,
      "Ġmermaid": 6464,
      "Ġoccas": 6465,
      "ĠSquirrel": 6466,
      "Ġnasty": 6467,
      "Ġbeads": 6468,
      "Ġrushing": 6469,
      "Ġtelescope": 6470,
      "Ġtownspeople": 6471,
      "Ġscrewdriver": 6472,
      "!'.": 6473,
      "AA": 6474,
      "Back": 6475,
      "Baby": 6476,
      "Buzz": 6477,
      "Even": 6478,
      "Honey": 6479,
      "Lilly": 6480,
      "Not": 6481,
      "Or": 6482,
      "Rose": 6483,
      "Since": 6484,
      "Time": 6485,
      "Take": 6486,
      "Very": 6487,
      "aut": 6488,
      "aia": 6489,
      "boo": 6490,
      "bably": 6491,
      "cl": 6492,
      "found": 6493,
      "hive": 6494,
      "ibbit": 6495,
      "kins": 6496,
      "lin": 6497,
      "lon": 6498,
      "mark": 6499,
      "oh": 6500,
      "opper": 6501,
      "pie": 6502,
      "taker": 6503,
      "ux": 6504,
      "vast": 6505,
      "vince": 6506,
      "ĊĊ": 6507,
      "herie": 6508,
      "Ġtim": 6509,
      "Ġtangled": 6510,
      "Ġsens": 6511,
      "Ġsix": 6512,
      "Ġwob": 6513,
      "Ġwool": 6514,
      "Ġtheat": 6515,
      "Ġble": 6516,
      "Ġboo": 6517,
      "Ġbound": 6518,
      "Ġbun": 6519,
      "Ġbak": 6520,
      "Ġfara": 6521,
      "Ġfreed": 6522,
      "Ġfuzzy": 6523,
      "Ġlux": 6524,
      "Ġhen": 6525,
      "Ġhearing": 6526,
      "Ġheav": 6527,
      "Ġheaven": 6528,
      "Ġcoup": 6529,
      "Ġdipped": 6530,
      "Ġdusty": 6531,
      "Ġmitten": 6532,
      "Ġmiles": 6533,
      "omas": 6534,
      "aron": 6535,
      "idence": 6536,
      "atches": 6537,
      "lls": 6538,
      "Ġsank": 6539,
      "ĠSha": 6540,
      "orful": 6541,
      "ĠThese": 6542,
      "Ġbelly": 6543,
      "Ġriddle": 6544,
      "str": 6545,
      "ado": 6546,
      "ĠthatÃ¢": 6547,
      "Ġyounger": 6548,
      "ittered": 6549,
      "ĠĊĊ": 6550,
      "ĠLike": 6551,
      "ĠLizzy": 6552,
      "ĠListen": 6553,
      "ĠLuke": 6554,
      "ĠLively": 6555,
      "lyn": 6556,
      "choo": 6557,
      "Ġrepa": 6558,
      "Ġlie": 6559,
      "Ġlied": 6560,
      "ĠBirthday": 6561,
      "Ġloop": 6562,
      "Ġgirls": 6563,
      "ĠMo": 6564,
      "ĠMan": 6565,
      "ĠMouse": 6566,
      "ĠMae": 6567,
      "Ġgobbled": 6568,
      "artie": 6569,
      "artled": 6570,
      "Ġallow": 6571,
      "ĠAngie": 6572,
      "ĠTimothy": 6573,
      "Ġbackwards": 6574,
      "Ġcaus": 6575,
      "Ġcaused": 6576,
      "Ġfever": 6577,
      "Ġscaring": 6578,
      "Ġfarew": 6579,
      "Ġfault": 6580,
      "Ġmemb": 6581,
      "ĠEric": 6582,
      "Ġranger": 6583,
      "Ġchips": 6584,
      "asp": 6585,
      "Ġdecides": 6586,
      "Ġcoal": 6587,
      "Ġcode": 6588,
      "Ġflown": 6589,
      "Ġflap": 6590,
      "Ġflapping": 6591,
      "bbly": 6592,
      "Ġbully": 6593,
      "Ġgoodby": 6594,
      "ĠDe": 6595,
      "ĠDependable": 6596,
      "Ġtreehouse": 6597,
      "Ġpose": 6598,
      "Ġpopper": 6599,
      "Ġgrain": 6600,
      "Ġcaretaker": 6601,
      "ĠEverybody": 6602,
      "Ġpapa": 6603,
      "Ġpause": 6604,
      "Ġpeck": 6605,
      "Ġpecked": 6606,
      "Ġquilt": 6607,
      "Ġtramp": 6608,
      "aula": 6609,
      "Ġfond": 6610,
      "Ġwaters": 6611,
      "Ġwatering": 6612,
      "Ġflowing": 6613,
      "Ġchef": 6614,
      "ĠPut": 6615,
      "ĠPap": 6616,
      "Ġremoved": 6617,
      "Ġstaying": 6618,
      "Ġbravest": 6619,
      "aren": 6620,
      "Ġteased": 6621,
      "Ġtexture": 6622,
      "Ġconfu": 6623,
      "Ġconvers": 6624,
      "Ġconvince": 6625,
      "Ġunderwater": 6626,
      "iper": 6627,
      "Ġwindy": 6628,
      "Ġdevast": 6629,
      "ĠGood": 6630,
      "ĠGemma": 6631,
      "ĠGinger": 6632,
      "Ġkeeps": 6633,
      "Ġdoorway": 6634,
      "ĠNan": 6635,
      "ĠNobody": 6636,
      "Ġsquish": 6637,
      "aky": 6638,
      "Ġrocking": 6639,
      "ĠRich": 6640,
      "ĠRory": 6641,
      "ĠRhythm": 6642,
      "Ġrainy": 6643,
      "Ġrained": 6644,
      "Ġlistens": 6645,
      "acle": 6646,
      "olorful": 6647,
      "Ġfrost": 6648,
      "ĠAfterwards": 6649,
      "Ġlighter": 6650,
      "Ġdarker": 6651,
      "Ġexploration": 6652,
      "Ġjoyfully": 6653,
      "ĠKen": 6654,
      "ĠTherese": 6655,
      "Ġpretends": 6656,
      "Ġmarriage": 6657,
      "Ġbeehive": 6658,
      "Ġbelieving": 6659,
      "Ġprobably": 6660,
      "Ġmatched": 6661,
      "ĠWhatÃ¢": 6662,
      "Ġjudge": 6663,
      "ixie": 6664,
      "Ġmixing": 6665,
      "Ġmysteries": 6666,
      "Ġpots": 6667,
      "Ġleaking": 6668,
      "Ġscreaming": 6669,
      "Ġpolishing": 6670,
      "Ġstreets": 6671,
      "Ġwinning": 6672,
      "Ġspoonful": 6673,
      "Ġactive": 6674,
      "Ġcollection": 6675,
      "Ġjunk": 6676,
      "Ġwraps": 6677,
      "Ġexpect": 6678,
      "Ġburrow": 6679,
      "Ġdriveway": 6680,
      "Ġprotecting": 6681,
      "Goodbye": 6682,
      "Ġmedal": 6683,
      "ception": 6684,
      "Todd": 6685,
      "Steve": 6686,
      "Ġnervously": 6687,
      "ĠOr": 6688,
      "ĠOw": 6689,
      "ĠOliver": 6690,
      "ĠBruce": 6691,
      "Ġscratches": 6692,
      "Ġcracker": 6693,
      "years": 6694,
      "Ġpirates": 6695,
      "ĠNoah": 6696,
      "Ġzookeeper": 6697,
      "ugging": 6698,
      "Ġblows": 6699,
      "Ġpencils": 6700,
      "Ġresisted": 6701,
      "Ġmushrooms": 6702,
      "Ġpreparing": 6703,
      "Ġglasses": 6704,
      "Ġsnail": 6705,
      "ĠZara": 6706,
      "Ġinsisting": 6707,
      "Ġphotos": 6708,
      "abina": 6709,
      "Ġincluding": 6710,
      "Ġprovided": 6711,
      "Ġquarreling": 6712,
      "Ġpebbles": 6713,
      "Chirp": 6714,
      "Ġtires": 6715,
      "Ġbasement": 6716,
      "Ġshivered": 6717,
      "Ġworms": 6718,
      "ĠCari": 6719,
      "ĠCarol": 6720,
      "Ġcomplaining": 6721,
      "aitlyn": 6722,
      "Ġhesitant": 6723,
      "Ġsweep": 6724,
      "ĠPatty": 6725,
      "Ġappreciated": 6726,
      "ibly": 6727,
      "Ġlicks": 6728,
      "Ġpaddle": 6729,
      "ĠBiggy": 6730,
      "Ġcheeks": 6731,
      "Ġpotatoes": 6732,
      "Ġconfidence": 6733,
      "Ġapplaud": 6734,
      "ĠLiza": 6735,
      "Ġsatisfaction": 6736,
      "Ġdirections": 6737,
      "ĠPoor": 6738,
      "ĠPoppy": 6739,
      "ĠRuby": 6740,
      "Ġobeyed": 6741,
      "Ġresults": 6742,
      "ĠJean": 6743,
      "ĠJeff": 6744,
      "Ġperformed": 6745,
      "Freddy": 6746,
      "Ġgreeted": 6747,
      "ĠSpeedy": 6748,
      "Yeah": 6749,
      "Ġacorns": 6750,
      "Ġsternly": 6751,
      "Ġexplorers": 6752,
      "Ġdarling": 6753,
      "Ġinterru": 6754,
      "belle": 6755,
      "Ġechoed": 6756,
      "ĠAdam": 6757,
      "Ġdeclared": 6758,
      "Ġcubes": 6759,
      "Ġgloves": 6760,
      "ĠClarice": 6761,
      "Ġinstruments": 6762,
      "Excitedly": 6763,
      "Ġannoyed": 6764,
      "Quackers": 6765,
      "Ġconnected": 6766,
      "Ġafford": 6767,
      "ĠSunday": 6768,
      "ĠLibby": 6769,
      "Ġpossess": 6770,
      "Ġprickly": 6771,
      "Ġoccasion": 6772,
      "Ġwobble": 6773,
      "Ġtheatre": 6774,
      "Ġbunnies": 6775,
      "Ġbakery": 6776,
      "Ġfaraway": 6777,
      "Ġcouple": 6778,
      "Ġrepaired": 6779,
      "Ġfarewell": 6780,
      "Ġmembers": 6781,
      "Ġgoodbyes": 6782,
      "Ġtrampoline": 6783,
      "Ġdevastated": 6784,
      "Abby": 6785,
      "Aunt": 6786,
      "Claire": 6787,
      "Doug": 6788,
      "Dave": 6789,
      "Elly": 6790,
      "Ella": 6791,
      "Great": 6792,
      "Hop": 6793,
      "Have": 6794,
      "Jess": 6795,
      "Jul": 6796,
      "June": 6797,
      "Jerry": 6798,
      "Kayla": 6799,
      "Katie": 6800,
      "May": 6801,
      "Mon": 6802,
      "Micky": 6803,
      "Nee": 6804,
      "Pa": 6805,
      "Rita": 6806,
      "Sadly": 6807,
      "Tiny": 6808,
      "Willie": 6809,
      "Welcome": 6810,
      "Youth": 6811,
      "bi": 6812,
      "but": 6813,
      "bank": 6814,
      "cter": 6815,
      "cers": 6816,
      "cup": 6817,
      "ds": 6818,
      "even": 6819,
      "eens": 6820,
      "fin": 6821,
      "fied": 6822,
      "go": 6823,
      "ippy": 6824,
      "lers": 6825,
      "njoy": 6826,
      "oey": 6827,
      "obbie": 6828,
      "sie": 6829,
      "tock": 6830,
      "ury": 6831,
      "ulp": 6832,
      "udy": 6833,
      "uppy": 6834,
      "ww": 6835,
      "xi": 6836,
      "yond": 6837,
      "zes": 6838,
      "Ġais": 6839,
      "Ġwink": 6840,
      "inted": 6841,
      "inchy": 6842,
      "Ġbars": 6843,
      "Ġbunch": 6844,
      "Ġwax": 6845,
      "Ġhood": 6846,
      "Ġhour": 6847,
      "its": 6848,
      "Ġfart": 6849,
      "Ġfaded": 6850,
      "Ġlower": 6851,
      "Ġcough": 6852,
      "Ġdet": 6853,
      "Ġdaring": 6854,
      "Ġdots": 6855,
      "Ġmes": 6856,
      "Ġmunch": 6857,
      "Ġgall": 6858,
      "Ġgue": 6859,
      "isions": 6860,
      "ido": 6861,
      "ats": 6862,
      "atur": 6863,
      "atitude": 6864,
      "ĠSna": 6865,
      "ĠSince": 6866,
      "ĠSadly": 6867,
      "ĠSophia": 6868,
      "anish": 6869,
      "ĠHarper": 6870,
      "ility": 6871,
      "onished": 6872,
      "onnie": 6873,
      "Ġund": 6874,
      "Ġbeyond": 6875,
      "igning": 6876,
      "igator": 6877,
      "ooking": 6878,
      "Ġrip": 6879,
      "ambled": 6880,
      "Ġyel": 6881,
      "Ġhissed": 6882,
      "Ġplucked": 6883,
      "elvet": 6884,
      "ĠTake": 6885,
      "united": 6886,
      "Ġwest": 6887,
      "Ġwept": 6888,
      "ĠLee": 6889,
      "ĠLacy": 6890,
      "ĠLouie": 6891,
      "allory": 6892,
      "Ġshoo": 6893,
      "Ġneither": 6894,
      "Ġreason": 6895,
      "Ġreunited": 6896,
      "ĠBug": 6897,
      "sequ": 6898,
      "Ġkings": 6899,
      "Ġanger": 6900,
      "Ġloose": 6901,
      "ĠMacy": 6902,
      "ĠMaple": 6903,
      "Ġbond": 6904,
      "ĠJanie": 6905,
      "Ġexch": 6906,
      "Ġspong": 6907,
      "Ġalligator": 6908,
      "ĠAbi": 6909,
      "Ġclues": 6910,
      "ickey": 6911,
      "Ġscent": 6912,
      "Ġsculp": 6913,
      "Ġage": 6914,
      "Ġmeow": 6915,
      "ĠElle": 6916,
      "ĠEnjoy": 6917,
      "ĠWatch": 6918,
      "Ġlap": 6919,
      "Ġchill": 6920,
      "Ġchara": 6921,
      "Ġchases": 6922,
      "Ġnewfound": 6923,
      "Ġeverybody": 6924,
      "Ġprank": 6925,
      "iley": 6926,
      "ĠDespite": 6927,
      "Ġblood": 6928,
      "ĠFido": 6929,
      "Ġgratitude": 6930,
      "master": 6931,
      "manda": 6932,
      "ÅĵThe": 6933,
      "ÅĵMaybe": 6934,
      "ÅĵCome": 6935,
      "ÅĵWhere": 6936,
      "ÅĵWell": 6937,
      "Ġpeel": 6938,
      "Ġtaxi": 6939,
      "ĠYouÃ¢": 6940,
      "ĠJog": 6941,
      "ĠJokes": 6942,
      "Ġqueens": 6943,
      "retty": 6944,
      "ĠJackie": 6945,
      "Ġtrading": 6946,
      "aura": 6947,
      "Ġhandy": 6948,
      "Ġhandful": 6949,
      "Ġwatches": 6950,
      "Ġrail": 6951,
      "Ġracer": 6952,
      "Ġbeaver": 6953,
      "Ġcomm": 6954,
      "Ġslice": 6955,
      "ĠColorful": 6956,
      "ĠPl": 6957,
      "ĠPinky": 6958,
      "ĠPiper": 6959,
      "ĠPuppy": 6960,
      "ĠPinchy": 6961,
      "Ġremove": 6962,
      "Ġstays": 6963,
      "Ġglittered": 6964,
      "Ġteasp": 6965,
      "Ġconqu": 6966,
      "Ġconsequ": 6967,
      "Ġlets": 6968,
      "ĠAnnabelle": 6969,
      "Ġdefe": 6970,
      "Ġdefin": 6971,
      "ĠGina": 6972,
      "ĠGavin": 6973,
      "Ġreplaced": 6974,
      "Ġthrown": 6975,
      "Ġworker": 6976,
      "ĠNee": 6977,
      "ĠNancy": 6978,
      "Ġwrist": 6979,
      "Ġdragged": 6980,
      "ĠSpanish": 6981,
      "Ġpatted": 6982,
      "ounting": 6983,
      "Ġstepping": 6984,
      "acob": 6985,
      "Ġbaked": 6986,
      "Ġsweeties": 6987,
      "Ġsweetest": 6988,
      "Ġcreativ": 6989,
      "Ġruining": 6990,
      "Ġruler": 6991,
      "Ġfires": 6992,
      "ĠEmilda": 6993,
      "ĠLeticia": 6994,
      "Ġdripping": 6995,
      "Ġmothers": 6996,
      "ĠThomas": 6997,
      "Ġowners": 6998,
      "ĠKin": 6999,
      "ĠKaren": 7000,
      "ĠKaitlyn": 7001,
      "Ġparted": 7002,
      "Ġtrips": 7003,
      "Ġours": 7004,
      "Ġblocked": 7005,
      "Ġblocking": 7006,
      "Ġjobs": 7007,
      "Ġmath": 7008,
      "Ġturnip": 7009,
      "Ġpets": 7010,
      "ences": 7011,
      "Ġattack": 7012,
      "Ġattem": 7013,
      "Ġgrowl": 7014,
      "Ġsnowfl": 7015,
      "Ġbottles": 7016,
      "Ġdespite": 7017,
      "Ġchopping": 7018,
      "Ġbuckets": 7019,
      "Ġpiggy": 7020,
      "Ġharvest": 7021,
      "Ġreturning": 7022,
      "Ġhealing": 7023,
      "Ġsisters": 7024,
      "Ġbreathed": 7025,
      "Ġpractised": 7026,
      "Ġscreams": 7027,
      "Ġmarkers": 7028,
      "Ġlifting": 7029,
      "Ġmouths": 7030,
      "Ġrainbows": 7031,
      "ĠPetey": 7032,
      "ĠChad": 7033,
      "ĠChris": 7034,
      "Ġantic": 7035,
      "Ġinvol": 7036,
      "ĠJennifer": 7037,
      "Ġpleaded": 7038,
      "Ġdived": 7039,
      "Ġignoring": 7040,
      "Goodnight": 7041,
      "Ġtearing": 7042,
      "Ġmotion": 7043,
      "Ġtroubles": 7044,
      "Ġescaping": 7045,
      "Ġwandering": 7046,
      "ĠMarvin": 7047,
      "Ġmedals": 7048,
      "Ġcooper": 7049,
      "Ġmanager": 7050,
      "Ġtests": 7051,
      "Ġstorms": 7052,
      "Ġbullies": 7053,
      "Ġdisappoint": 7054,
      "Emmy": 7055,
      "Ġleading": 7056,
      "Ġawo": 7057,
      "Ġawake": 7058,
      "Ġpinched": 7059,
      "Ġgrandd": 7060,
      "Ġscrambled": 7061,
      "Ġvibr": 7062,
      "Ġsuggestion": 7063,
      "Ġfrowning": 7064,
      "Ġclearly": 7065,
      "Ġfeeding": 7066,
      "Ġdinosaurs": 7067,
      "Ġcrossing": 7068,
      "athan": 7069,
      "Meow": 7070,
      "Ġhorns": 7071,
      "Ġblooming": 7072,
      "Ġsymbols": 7073,
      "ĠUncle": 7074,
      "Ġcanes": 7075,
      "cuse": 7076,
      "Ġpedaled": 7077,
      "Ġleaning": 7078,
      "ĠPeggy": 7079,
      "Ġcomputers": 7080,
      "Ġsalt": 7081,
      "Ġsalty": 7082,
      "Ġstrawberries": 7083,
      "Remy": 7084,
      "Ġvanish": 7085,
      "Ġpostmaster": 7086,
      "ĠZoomy": 7087,
      "ĠZigzag": 7088,
      "ĠRod": 7089,
      "Ġdesigns": 7090,
      "ĠshouldnÃ¢": 7091,
      "Ġmillion": 7092,
      "uction": 7093,
      "Ġbumps": 7094,
      "Ġavoid": 7095,
      "Charles": 7096,
      "Ġreversed": 7097,
      "Ġencourage": 7098,
      "ĠTrouble": 7099,
      "ronaut": 7100,
      "Ġbuzzed": 7101,
      "ĠSharing": 7102,
      "ĠSharon": 7103,
      "Ġdelivered": 7104,
      "Ġdelivering": 7105,
      "ĠIsn": 7106,
      "Ġtwinkled": 7107,
      "Ġtrembled": 7108,
      "Ġtornado": 7109,
      "Ġornament": 7110,
      "ĠSuper": 7111,
      "Ġweeping": 7112,
      "Ġsqueaky": 7113,
      "Ġstroll": 7114,
      "Ġstroked": 7115,
      "Ġsneaky": 7116,
      "Ġhonk": 7117,
      "Ġpans": 7118,
      "Ġscrubbing": 7119,
      "Ġmasterpie": 7120,
      "Excuse": 7121,
      "Ġwaffle": 7122,
      "Ġpedaling": 7123,
      "Ġwiggle": 7124,
      "Ġwiggled": 7125,
      "ĠJessi": 7126,
      "Ġflavors": 7127,
      "Ġwarnings": 7128,
      "Ġsilently": 7129,
      "Roger": 7130,
      "Ġclicked": 7131,
      "Ġtravelled": 7132,
      "Ġastronaut": 7133,
      "Ġlungs": 7134,
      "ĠNothing": 7135,
      "Ġcalmed": 7136,
      "Ġcrashing": 7137,
      "Ġcrashed": 7138,
      "Ġresponsible": 7139,
      "Ġtoddler": 7140,
      "Ġchoosing": 7141,
      "Leo": 7142,
      "ĠSimone": 7143,
      "asmine": 7144,
      "Ġgranted": 7145,
      "Ġbehaving": 7146,
      "Ġpouted": 7147,
      "Ġexpression": 7148,
      "Ġtypes": 7149,
      "Ġtingle": 7150,
      "Ġrisks": 7151,
      "Ġlocal": 7152,
      "Ġcashier": 7153,
      "Ġexploded": 7154,
      "Ġfreedom": 7155,
      "Ġcausing": 7156,
      "Ġfrosting": 7157,
      "cupine": 7158,
      "Ġmesmer": 7159,
      "Ġguest": 7160,
      "Ġsponge": 7161,
      "Ġsculpture": 7162,
      "Ġcharacter": 7163,
      "Ġteaspoon": 7164,
      "Ġdefinitely": 7165,
      "ĠNeeNee": 7166,
      "Ġcreativity": 7167,
      "Ġsnowflake": 7168,
      "Ġmasterpiece": 7169,
      "--": 7170,
      "?!\"": 7171,
      "Bee": 7172,
      "Buzzy": 7173,
      "Binky": 7174,
      "Dan": 7175,
      "Harry": 7176,
      "Ju": 7177,
      "Jamie": 7178,
      "Like": 7179,
      "Louie": 7180,
      "Mart": 7181,
      "Milly": 7182,
      "Mittens": 7183,
      "Mimi": 7184,
      "Mazzy": 7185,
      "Nina": 7186,
      "Nana": 7187,
      "Out": 7188,
      "Rob": 7189,
      "Rory": 7190,
      "Sunny": 7191,
      "Shh": 7192,
      "Tr": 7193,
      "Ted": 7194,
      "Wh": 7195,
      "Whe": 7196,
      "ael": 7197,
      "aqu": 7198,
      "bur": 7199,
      "bird": 7200,
      "bage": 7201,
      "cher": 7202,
      "come": 7203,
      "cip": 7204,
      "die": 7205,
      "eel": 7206,
      "fork": 7207,
      "hind": 7208,
      "kip": 7209,
      "mag": 7210,
      "mered": 7211,
      "ns": 7212,
      "opped": 7213,
      "pit": 7214,
      "ping": 7215,
      "rup": 7216,
      "sday": 7217,
      "the": 7218,
      "tle": 7219,
      "tuce": 7220,
      "ud": 7221,
      "whe": 7222,
      "wise": 7223,
      "Â«": 7224,
      "Â»": 7225,
      "Ġill": 7226,
      "ĠOf": 7227,
      "ĠQuackers": 7228,
      "hells": 7229,
      "Ġtuck": 7230,
      "Ġtips": 7231,
      "Ġtugging": 7232,
      "Ġaim": 7233,
      "Ġsou": 7234,
      "Ġwetter": 7235,
      "ndas": 7236,
      "edne": 7237,
      "inny": 7238,
      "incts": 7239,
      "Ġbumpy": 7240,
      "Ġwaking": 7241,
      "Ġwanna": 7242,
      "ero": 7243,
      "ering": 7244,
      "Ġlent": 7245,
      "Ġlined": 7246,
      "Ġwasted": 7247,
      "Ġden": 7248,
      "Ġdie": 7249,
      "Ġdep": 7250,
      "Ġpec": 7251,
      "Ġpies": 7252,
      "Ġpitc": 7253,
      "Ġopp": 7254,
      "Ġodd": 7255,
      "Ġopt": 7256,
      "armer": 7257,
      "Ġgroom": 7258,
      "Ġgorge": 7259,
      "ids": 7260,
      "idnight": 7261,
      "llen": 7262,
      "engers": 7263,
      "ĠSant": 7264,
      "ĠSilly": 7265,
      "ĠSeth": 7266,
      "ans": 7267,
      "anas": 7268,
      "ĠHope": 7269,
      "ilies": 7270,
      "onse": 7271,
      "Ġinsp": 7272,
      "Ġeight": 7273,
      "Ġease": 7274,
      "cey": 7275,
      "ige": 7276,
      "igi": 7277,
      "Ġrad": 7278,
      "amiliar": 7279,
      "Ġyumm": 7280,
      "step": 7281,
      "rian": 7282,
      "ripe": 7283,
      "Ġplopped": 7284,
      "ades": 7285,
      "ently": 7286,
      "esome": 7287,
      "Ġplayers": 7288,
      "unched": 7289,
      "Ġwears": 7290,
      "ĠLou": 7291,
      "ĠLuckily": 7292,
      "ĠLaura": 7293,
      "Ġwhirl": 7294,
      "Ġwhipped": 7295,
      "Ġwhoosh": 7296,
      "Ġshallow": 7297,
      "Ġrefu": 7298,
      "Ġreaction": 7299,
      "Ġreception": 7300,
      "ĠBecause": 7301,
      "ĠBrian": 7302,
      "Ġaside": 7303,
      "racey": 7304,
      "ugs": 7305,
      "ĠMoon": 7306,
      "ĠMickey": 7307,
      "ĠMidnight": 7308,
      "Ġboiled": 7309,
      "Ġbolt": 7310,
      "ĠJin": 7311,
      "ĠJay": 7312,
      "ĠJason": 7313,
      "ĠJacob": 7314,
      "Ġspy": 7315,
      "indro": 7316,
      "aint": 7317,
      "ĠAna": 7318,
      "ĠAyla": 7319,
      "Ġclut": 7320,
      "Ġclue": 7321,
      "Ġcafe": 7322,
      "Ġcape": 7323,
      "Ġfacing": 7324,
      "Ġroast": 7325,
      "ĠElin": 7326,
      "ĠWater": 7327,
      "ĠWinter": 7328,
      "ĠWendy": 7329,
      "ĠWedne": 7330,
      "ager": 7331,
      "Ġlava": 7332,
      "Ġchilly": 7333,
      "Ġchunk": 7334,
      "Ġdecisions": 7335,
      "Ġparking": 7336,
      "Ġflick": 7337,
      "Ġflas": 7338,
      "bbling": 7339,
      "ĠDolly": 7340,
      "Ġblink": 7341,
      "Ġblues": 7342,
      "Ġpandas": 7343,
      "ÅĵA": 7344,
      "ÅĵBut": 7345,
      "ÅĵGood": 7346,
      "ÅĵHow": 7347,
      "ÅĵWho": 7348,
      "Ġdoggie": 7349,
      "pts": 7350,
      "Ġadj": 7351,
      "Ġraindro": 7352,
      "Ġlongest": 7353,
      "oys": 7354,
      "aps": 7355,
      "Ġneedles": 7356,
      "Ġwobbled": 7357,
      "Ġfamilies": 7358,
      "Ġdonkey": 7359,
      "ĠCow": 7360,
      "ĠCherie": 7361,
      "ĠConnie": 7362,
      "ĠCounting": 7363,
      "ĠPer": 7364,
      "ĠPancake": 7365,
      "ĠPixie": 7366,
      "Ġfins": 7367,
      "Ġsmiley": 7368,
      "Those": 7369,
      "Ġconcer": 7370,
      "Ġconstr": 7371,
      "Ġloudest": 7372,
      "ipes": 7373,
      "ipation": 7374,
      "Ġdangers": 7375,
      "Ġlettuce": 7376,
      "Ġtoward": 7377,
      "Ġdeal": 7378,
      "ĠGabby": 7379,
      "Ġworkman": 7380,
      "Ġbrightest": 7381,
      "ĠNathan": 7382,
      "ffled": 7383,
      "Ġjoked": 7384,
      "Ġnearly": 7385,
      "Ġhandsome": 7386,
      "Ġnights": 7387,
      "ĠRicky": 7388,
      "ĠRiley": 7389,
      "sol": 7390,
      "Ġdifferently": 7391,
      "Ġsteep": 7392,
      "Ġruin": 7393,
      "Ġsandpit": 7394,
      "Ġsticking": 7395,
      "uliar": 7396,
      "issa": 7397,
      "Ġforgi": 7398,
      "Ġamong": 7399,
      "Ġsoftest": 7400,
      "Ġprincip": 7401,
      "Ġsinger": 7402,
      "ĠKari": 7403,
      "ĠKiki": 7404,
      "Ġparties": 7405,
      "ichael": 7406,
      "ĠGracie": 7407,
      "Ġbuyer": 7408,
      "Ġbuying": 7409,
      "Ġrolls": 7410,
      "Ġcloudy": 7411,
      "meow": 7412,
      "meal": 7413,
      "Ġguide": 7414,
      "Ġgulp": 7415,
      "Ġvisits": 7416,
      "Ġfloors": 7417,
      "ĠDoes": 7418,
      "Bobo": 7419,
      "Andi": 7420,
      "Ġshaped": 7421,
      "Ġdragons": 7422,
      "Ġsnowball": 7423,
      "Ġsails": 7424,
      "umbling": 7425,
      "Ġgentleman": 7426,
      "Ġdesigned": 7427,
      "Ġchopped": 7428,
      "Ġbathrobe": 7429,
      "Ġplans": 7430,
      "lfie": 7431,
      "Ġpacket": 7432,
      "ounced": 7433,
      "Ġinstincts": 7434,
      "Ġnaughtiness": 7435,
      "Ġbushy": 7436,
      "Ġsprout": 7437,
      "Ġpreschool": 7438,
      "Ġbreathing": 7439,
      "Everyday": 7440,
      "Ġpresented": 7441,
      "Ġpeacefully": 7442,
      "Ġbowls": 7443,
      "Ġdrying": 7444,
      "Ġresponse": 7445,
      "ĠCharles": 7446,
      "Ġpassengers": 7447,
      "Ġreminds": 7448,
      "Ġreminding": 7449,
      "ĠStay": 7450,
      "ĠSteven": 7451,
      "Ġbellies": 7452,
      "ertain": 7453,
      "ĠMarc": 7454,
      "ĠBeing": 7455,
      "Ġcalmly": 7456,
      "Startled": 7457,
      "Ġtrusting": 7458,
      "Ġterrified": 7459,
      "Ġaddress": 7460,
      "Ġgarbage": 7461,
      "Ġawesome": 7462,
      "Ġcactuses": 7463,
      "Ġmeasurements": 7464,
      "ĠBrad": 7465,
      "Ġtickling": 7466,
      "Ġspaces": 7467,
      "Ġscratched": 7468,
      "Ġroads": 7469,
      "Ġstuffing": 7470,
      "Ġcomets": 7471,
      "Ġstreamers": 7472,
      "ĠAlong": 7473,
      "Ġsnakes": 7474,
      "Ġdrums": 7475,
      "Ġskips": 7476,
      "Ġdiscoveries": 7477,
      "Ġoatmeal": 7478,
      "Ġsyrup": 7479,
      "Ġpaying": 7480,
      "Ġtwisty": 7481,
      "lsie": 7482,
      "Ġwakes": 7483,
      "Meanwhile": 7484,
      "Ġghosts": 7485,
      "Ġhamster": 7486,
      "Ġexpert": 7487,
      "Ġexperiment": 7488,
      "Ġjackets": 7489,
      "Ġstamped": 7490,
      "Ġreflect": 7491,
      "Ġknobs": 7492,
      "Ġrepeated": 7493,
      "Ġrepeating": 7494,
      "Ġsniffing": 7495,
      "Ġbelts": 7496,
      "Ġspringing": 7497,
      "Ġleaks": 7498,
      "Ġbananas": 7499,
      "ĠFrankie": 7500,
      "Ġunlo": 7501,
      "Ġthreads": 7502,
      "Ġexplaining": 7503,
      "Ġstealing": 7504,
      "Ġkayaking": 7505,
      "Ġflags": 7506,
      "Ġvehicles": 7507,
      "Ġfascinating": 7508,
      "Ġreversing": 7509,
      "Ġcuddles": 7510,
      "Ġcombed": 7511,
      "ĠCarla": 7512,
      "Ġporcupine": 7513,
      "ĠFlossy": 7514,
      "Ġsurroundings": 7515,
      "Ġpitchfork": 7516,
      "Ġincreasing": 7517,
      "ĠChirpie": 7518,
      "Ġrequested": 7519,
      "Ġcopy": 7520,
      "Ġappreciation": 7521,
      "Isn": 7522,
      "lowers": 7523,
      "Ġneatly": 7524,
      "Ġlicking": 7525,
      "ĠWillow": 7526,
      "Ġpunishment": 7527,
      "ĠJuliet": 7528,
      "ĠAnny": 7529,
      "Ġfirefly": 7530,
      "Ġfireflies": 7531,
      "Ġprettier": 7532,
      "Ġweights": 7533,
      "Ġsprinkled": 7534,
      "Ġdaily": 7535,
      "Betsy": 7536,
      "ĠJessie": 7537,
      "ĠJessica": 7538,
      "ĠVroom": 7539,
      "Ġswayed": 7540,
      "Ġswaying": 7541,
      "Ġparticularly": 7542,
      "Quick": 7543,
      "Ġbrushing": 7544,
      "Ġtalented": 7545,
      "Ġcobwebs": 7546,
      "Ġastonished": 7547,
      "ĠTyler": 7548,
      "Carla": 7549,
      "Missy": 7550,
      "Ġseashells": 7551,
      "ĠJoseph": 7552,
      "Ġbehavior": 7553,
      "Ġbehaviour": 7554,
      "Ġnearest": 7555,
      "ĠMelody": 7556,
      "ĠMarty": 7557,
      "ĠExcited": 7558,
      "Ġfocus": 7559,
      "Ġunfamiliar": 7560,
      "Ġuncover": 7561,
      "Ġpositive": 7562,
      "Ġblender": 7563,
      "Ġluxury": 7564,
      "Ġheavier": 7565,
      "ĠShaun": 7566,
      "Ġchefs": 7567,
      "Ġtextures": 7568,
      "Ġconversation": 7569,
      "Ġsquishy": 7570,
      "ĠRichie": 7571,
      "Paola": 7572,
      "Ġaisle": 7573,
      "Ġfarther": 7574,
      "Ġdetail": 7575,
      "Ġyelped": 7576,
      "ĠBuggy": 7577,
      "Ġconquered": 7578,
      "Ġconsequences": 7579,
      "Ġattempts": 7580,
      "Ġanticipation": 7581,
      "Ġdisappointment": 7582,
      "Ġsnowflakes": 7583,
      "Martin": 7584,
      "aqui": 7585,
      "eeling": 7586,
      "Ġdepths": 7587,
      "Ġpeculiar": 7588,
      "Ġpitcher": 7589,
      "Ġgorgeous": 7590,
      "ĠSanta": 7591,
      "ĠWednesday": 7592,
      "Ġraindrops": 7593,
      "Ġprincipal": 7594,
      "'?\"": 7595,
      "Ayla": 7596,
      "Cat": 7597,
      "Curious": 7598,
      "For": 7599,
      "Fro": 7600,
      "Fort": 7601,
      "Fine": 7602,
      "Follow": 7603,
      "Ginger": 7604,
      "Je": 7605,
      "Jump": 7606,
      "Joy": 7607,
      "Kim": 7608,
      "Katy": 7609,
      "Kiki": 7610,
      "Lizzie": 7611,
      "Macy": 7612,
      "Michelle": 7613,
      "Maia": 7614,
      "Nora": 7615,
      "Olive": 7616,
      "Po": 7617,
      "Pat": 7618,
      "Put": 7619,
      "Pam": 7620,
      "Randy": 7621,
      "Rosie": 7622,
      "Root": 7623,
      "Su": 7624,
      "Sir": 7625,
      "Some": 7626,
      "Surpr": 7627,
      "Silly": 7628,
      "Sha": 7629,
      "Slowly": 7630,
      "Sophia": 7631,
      "Woof": 7632,
      "Winter": 7633,
      "aila": 7634,
      "belt": 7635,
      "bro": 7636,
      "band": 7637,
      "cent": 7638,
      "ew": 7639,
      "fill": 7640,
      "five": 7641,
      "fess": 7642,
      "gain": 7643,
      "hia": 7644,
      "hand": 7645,
      "hins": 7646,
      "haps": 7647,
      "ieter": 7648,
      "iasm": 7649,
      "kle": 7650,
      "lish": 7651,
      "lict": 7652,
      "mel": 7653,
      "oco": 7654,
      "rr": 7655,
      "rat": 7656,
      "ranged": 7657,
      "sion": 7658,
      "vil": 7659,
      "vive": 7660,
      "we": 7661,
      "wing": 7662,
      "wim": 7663,
      "yy": 7664,
      "ynt": 7665,
      "Â±": 7666,
      "Ġ2": 7667,
      "Ġic": 7668,
      "ĠOh": 7669,
      "ĠYouth": 7670,
      "hew": 7671,
      "Ġtv": 7672,
      "Ġtill": 7673,
      "Ġtipped": 7674,
      "Ġtying": 7675,
      "Ġtumm": 7676,
      "Ġah": 7677,
      "Ġaut": 7678,
      "Ġaud": 7679,
      "Ġsi": 7680,
      "Ġsus": 7681,
      "Ġwre": 7682,
      "eds": 7683,
      "Ġhind": 7684,
      "Ġhus": 7685,
      "Ġhitting": 7686,
      "Ġhips": 7687,
      "rees": 7688,
      "itched": 7689,
      "ition": 7690,
      "Ġfif": 7691,
      "Ġful": 7692,
      "ouch": 7693,
      "ouched": 7694,
      "erator": 7695,
      "Ġlimes": 7696,
      "Ġcust": 7697,
      "Ġcrop": 7698,
      "Ġcertain": 7699,
      "Ġpiled": 7700,
      "Ġmoo": 7701,
      "Ġmur": 7702,
      "oma": 7703,
      "omers": 7704,
      "Ġgest": 7705,
      "Ġgator": 7706,
      "llent": 7707,
      "ene": 7708,
      "Ġsale": 7709,
      "Ġsadd": 7710,
      "Ġhab": 7711,
      "Ġhaven": 7712,
      "lest": 7713,
      "ĠSay": 7714,
      "ĠSorry": 7715,
      "ĠSabina": 7716,
      "ĠSatur": 7717,
      "ĠSkip": 7718,
      "ĠSwim": 7719,
      "anion": 7720,
      "orter": 7721,
      "orking": 7722,
      "orrow": 7723,
      "etah": 7724,
      "ĠHalley": 7725,
      "ĠHallow": 7726,
      "ĠHugs": 7727,
      "ilbur": 7728,
      "Ġinj": 7729,
      "Ġevil": 7730,
      "Ġnibb": 7731,
      "oto": 7732,
      "otted": 7733,
      "Ġuna": 7734,
      "utely": 7735,
      "Ġbeating": 7736,
      "cel": 7737,
      "cellent": 7738,
      "ighing": 7739,
      "igure": 7740,
      "Ġstall": 7741,
      "Ġstalk": 7742,
      "Ġstumble": 7743,
      "Ġsoot": 7744,
      "Ġsobbed": 7745,
      "ooster": 7746,
      "Ġrooster": 7747,
      "Ġwithin": 7748,
      "itted": 7749,
      "els": 7750,
      "ĠTara": 7751,
      "ĠToni": 7752,
      "ĠTracey": 7753,
      "Ġplayroom": 7754,
      "ĠweÃ¢": 7755,
      "ching": 7756,
      "chief": 7757,
      "alled": 7758,
      "Ġsmashed": 7759,
      "Ġwhizz": 7760,
      "Ġshave": 7761,
      "Ġshorter": 7762,
      "Ġnecess": 7763,
      "Ġrejo": 7764,
      "ended": 7765,
      "Ġankle": 7766,
      "razy": 7767,
      "Ġsawing": 7768,
      "eca": 7769,
      "ĠMush": 7770,
      "ĠMabel": 7771,
      "ĠMinnie": 7772,
      "ĠMichael": 7773,
      "Ġbog": 7774,
      "ĠJaqui": 7775,
      "Ġexcellent": 7776,
      "Ġsped": 7777,
      "Ġspar": 7778,
      "Ġnoticing": 7779,
      "Ġaroma": 7780,
      "inders": 7781,
      "arted": 7782,
      "icle": 7783,
      "icorn": 7784,
      "iciest": 7785,
      "ĠAunt": 7786,
      "ĠAva": 7787,
      "ĠAmanda": 7788,
      "ĠAlfie": 7789,
      "ĠAmel": 7790,
      "ighting": 7791,
      "Ġclucked": 7792,
      "Ġcages": 7793,
      "Ġstartled": 7794,
      "Ġtheirs": 7795,
      "Ġleap": 7796,
      "getic": 7797,
      "ongrat": 7798,
      "Ġworn": 7799,
      "Ġscan": 7800,
      "Ġscri": 7801,
      "Ġscored": 7802,
      "Ġscene": 7803,
      "Ġrobb": 7804,
      "Ġroars": 7805,
      "ĠEating": 7806,
      "ĠWas": 7807,
      "ĠWelcome": 7808,
      "ĠWizard": 7809,
      "ĠWinnie": 7810,
      "Ġcharge": 7811,
      "Ġdeciding": 7812,
      "Ġbride": 7813,
      "Ġcoc": 7814,
      "Ġcosy": 7815,
      "Ġwhose": 7816,
      "Ġwhoever": 7817,
      "ept": 7818,
      "eped": 7819,
      "Ġotherwise": 7820,
      "Ġflat": 7821,
      "nytime": 7822,
      "Ġcarries": 7823,
      "Ġbubbly": 7824,
      "Ġgoodies": 7825,
      "ĠDippy": 7826,
      "Ġswept": 7827,
      "Ġkeen": 7828,
      "Ġposes": 7829,
      "Ġpods": 7830,
      "Ġblown": 7831,
      "Ġblond": 7832,
      "ĠFor": 7833,
      "ĠFather": 7834,
      "ĠFigure": 7835,
      "ource": 7836,
      "maker": 7837,
      "ooks": 7838,
      "Ġdads": 7839,
      "Ġhollow": 7840,
      "ÅĵWhen": 7841,
      "ÅĵHe": 7842,
      "ÅĵWow": 7843,
      "ÅĵOf": 7844,
      "ÅĵThere": 7845,
      "ÅĵStop": 7846,
      "ÅĵAre": 7847,
      "Ġpeeped": 7848,
      "Ġtapping": 7849,
      "Ġtaped": 7850,
      "Ġcatches": 7851,
      "Ġquieter": 7852,
      "Ġyourselves": 7853,
      "Ġsunsc": 7854,
      "Ġclover": 7855,
      "Ġoverhead": 7856,
      "Ġovercome": 7857,
      "pting": 7858,
      "Ġstrum": 7859,
      "Ġtraded": 7860,
      "Ġtrotted": 7861,
      "Ġcalls": 7862,
      "ears": 7863,
      "orth": 7864,
      "Ġfoal": 7865,
      "ĠSol": 7866,
      "Ġhandker": 7867,
      "Ġracers": 7868,
      "Ġgardens": 7869,
      "Ġslither": 7870,
      "Ġslices": 7871,
      "emon": 7872,
      "Ġeats": 7873,
      "Ġends": 7874,
      "inkled": 7875,
      "Ġcheetah": 7876,
      "ĠCD": 7877,
      "ĠCars": 7878,
      "ĠCurious": 7879,
      "ĠCopper": 7880,
      "ĠCrazy": 7881,
      "Ġsurprising": 7882,
      "ĠPa": 7883,
      "ĠPaula": 7884,
      "Ġcleared": 7885,
      "Ġglisten": 7886,
      "Ġstopping": 7887,
      "Ġforesh": 7888,
      "Ġconvin": 7889,
      "Ġconcent": 7890,
      "Ġdisob": 7891,
      "Ġdiscou": 7892,
      "Ġwinding": 7893,
      "Ġstormy": 7894,
      "Ġmaid": 7895,
      "ĠGhost": 7896,
      "ĠGarry": 7897,
      "Ġunripe": 7898,
      "Ġunicorn": 7899,
      "Ġsnoo": 7900,
      "Ġsnuggle": 7901,
      "Ġbrightened": 7902,
      "ĠNorth": 7903,
      "Ġwrinkled": 7904,
      "Ġrealizing": 7905,
      "Ġsquaw": 7906,
      "Ġcleaner": 7907,
      "JohnÃ¢": 7908,
      "Ġbadge": 7909,
      "Ġbits": 7910,
      "Ġbiting": 7911,
      "Ġclimbs": 7912,
      "Ġyells": 7913,
      "Ġbookmark": 7914,
      "Ġcontained": 7915,
      "ĠRight": 7916,
      "ĠRibbit": 7917,
      "Ġheadache": 7918,
      "Ġrains": 7919,
      "Ġrainco": 7920,
      "olcano": 7921,
      "Ġuses": 7922,
      "Ġrestored": 7923,
      "Ġgladly": 7924,
      "Ġzero": 7925,
      "Ġsmelling": 7926,
      "three": 7927,
      "Ġtraps": 7928,
      "Ġswimmer": 7929,
      "Ġflopped": 7930,
      "Ġmovements": 7931,
      "Ġbuses": 7932,
      "Ġbusiness": 7933,
      "Ġfairies": 7934,
      "Ġdreammaker": 7935,
      "Ġdrawn": 7936,
      "Ġowns": 7937,
      "Ġjoyful": 7938,
      "Ġvegg": 7939,
      "Ġvessel": 7940,
      "Ġbowing": 7941,
      "Ġcompete": 7942,
      "Ġcompanion": 7943,
      "Ġmarve": 7944,
      "Ġunderstands": 7945,
      "Ġcandies": 7946,
      "Ġcounts": 7947,
      "Ġprofess": 7948,
      "Ġguided": 7949,
      "Ġtables": 7950,
      "Ġtablecl": 7951,
      "Ġpetal": 7952,
      "Ġpointy": 7953,
      "Ġrivers": 7954,
      "Ġriverbank": 7955,
      "Ġowls": 7956,
      "Ġtalks": 7957,
      "Ġhideout": 7958,
      "Ġpersu": 7959,
      "Ġkittens": 7960,
      "Ġsnowy": 7961,
      "Ġdesper": 7962,
      "Ġborn": 7963,
      "Ġfreezing": 7964,
      "Ġheartbro": 7965,
      "Ġnaps": 7966,
      "ÅĵIf": 7967,
      "Ġsits": 7968,
      "ounce": 7969,
      "Ġhealth": 7970,
      "peat": 7971,
      "hog": 7972,
      "Ġsprings": 7973,
      "Ġsprang": 7974,
      "Ġleapt": 7975,
      "Ġbelongings": 7976,
      "Everything": 7977,
      "Ġearned": 7978,
      "Ġlifts": 7979,
      "Ġpolar": 7980,
      "Ġpolished": 7981,
      "Ġaccur": 7982,
      "Ġacting": 7983,
      "Ġaction": 7984,
      "Ġsurvive": 7985,
      "Ġshrank": 7986,
      "Ġsplashes": 7987,
      "Ġmischie": 7988,
      "Ġwrapping": 7989,
      "Ġcowb": 7990,
      "Ġmatters": 7991,
      "Ġfolders": 7992,
      "Ġpicnics": 7993,
      "ĠStan": 7994,
      "ĠStart": 7995,
      "ĠStop": 7996,
      "Ġbells": 7997,
      "Ġprotector": 7998,
      "Ġexamining": 7999,
      "ĠFreddie": 8000,
      "Ġangrily": 8001,
      "ĠMarlon": 8002,
      "Ġcoolest": 8003,
      "Ġhits": 8004,
      "ĠBeartie": 8005,
      "Ġpizzas": 8006,
      "Ġspreading": 8007,
      "Ġseatbelt": 8008,
      "Grand": 8009,
      "Gracie": 8010,
      "Ġself": 8011,
      "Ġincredibly": 8012,
      "Ġregister": 8013,
      "Ġtidied": 8014,
      "Ġtidying": 8015,
      "Ġbraver": 8016,
      "Ġawful": 8017,
      "Ġchews": 8018,
      "Ġchewing": 8019,
      "ĠOlly": 8020,
      "Ġlizards": 8021,
      "Ġscrub": 8022,
      "Ġcracked": 8023,
      "Ġfishes": 8024,
      "ĠDonÃ¢": 8025,
      "Ġharmony": 8026,
      "Ġstreams": 8027,
      "ĠAlicia": 8028,
      "Ġdolphins": 8029,
      "Ġlocks": 8030,
      "Ġloading": 8031,
      "Ġswans": 8032,
      "Ġpraying": 8033,
      "Ġprayers": 8034,
      "Ġmiracle": 8035,
      "Ġhurrying": 8036,
      "Ġwiping": 8037,
      "Ġwipes": 8038,
      "Ġforks": 8039,
      "Ġrescuing": 8040,
      "Ġchains": 8041,
      "Ġtunnels": 8042,
      "Ġpitched": 8043,
      "ooping": 8044,
      "Ġpumpkins": 8045,
      "Ġclaps": 8046,
      "Ġcompliment": 8047,
      "Ġunkind": 8048,
      "Ġborrowed": 8049,
      "Ġpeddled": 8050,
      "Ġrefrig": 8051,
      "Ġpepperoni": 8052,
      "Ġenergetic": 8053,
      "Ġsniffled": 8054,
      "Ġapologised": 8055,
      "Ġlollipops": 8056,
      "Ġzebras": 8057,
      "ironment": 8058,
      "Ġcovering": 8059,
      "Ġhungrily": 8060,
      "Ġdiamonds": 8061,
      "Ġnecklaces": 8062,
      "Ġvanilla": 8063,
      "ĠZoey": 8064,
      "Ġwealth": 8065,
      "Ġenvironment": 8066,
      "abra": 8067,
      "Ġbegs": 8068,
      "Ġbegun": 8069,
      "Ġscooted": 8070,
      "Ġcorners": 8071,
      "Ġtempted": 8072,
      "Ġnewspapers": 8073,
      "Ġproviding": 8074,
      "Ġcroaked": 8075,
      "Ġobserved": 8076,
      "Ġobserving": 8077,
      "Ġlending": 8078,
      "Ġcuddling": 8079,
      "ĠTrudy": 8080,
      "Ġclubs": 8081,
      "Ġhelmets": 8082,
      "ĠWherever": 8083,
      "Ġrotted": 8084,
      "Ġenthusiasm": 8085,
      "Ġthud": 8086,
      "Ġdisturbing": 8087,
      "Ġsuitcases": 8088,
      "Ġavocados": 8089,
      "ibility": 8090,
      "Ġhedgehog": 8091,
      "Ġherbs": 8092,
      "Ġresource": 8093,
      "Ġpenguins": 8094,
      "Ġmodels": 8095,
      "Ġfilms": 8096,
      "Ġstacked": 8097,
      "Ġpunish": 8098,
      "ĠSeeing": 8099,
      "Ġthumbs": 8100,
      "Tweetie": 8101,
      "Ġchatted": 8102,
      "Ġmelo": 8103,
      "Ġmelody": 8104,
      "Ġconflict": 8105,
      "Ġcaution": 8106,
      "Ġpanick": 8107,
      "ÅĵWeÃ¢": 8108,
      "Ġactivity": 8109,
      "Ġsolutions": 8110,
      "Jenna": 8111,
      "Ġsighs": 8112,
      "Ġreleasing": 8113,
      "Ġspits": 8114,
      "Ġscratching": 8115,
      "Ġtunes": 8116,
      "Ġwiggly": 8117,
      "ĠBye": 8118,
      "ĠMoni": 8119,
      "Ġcrystals": 8120,
      "ĠVolcano": 8121,
      "Ġdisagreeing": 8122,
      "Ġuntie": 8123,
      "Ġuntied": 8124,
      "ĠMargo": 8125,
      "Yesterday": 8126,
      "ĠEllen": 8127,
      "Ġresponsibility": 8128,
      "Ġprices": 8129,
      "Ġmaterial": 8130,
      "Ġtoddlers": 8131,
      "Ġchooses": 8132,
      "Ġ10": 8133,
      "Ġbehaved": 8134,
      "ĠGrandad": 8135,
      "Ġfetch": 8136,
      "Ġfetched": 8137,
      "Ġcentre": 8138,
      "Ġcenter": 8139,
      "Ġnearer": 8140,
      "ĠMartin": 8141,
      "Ġfocused": 8142,
      "Ġglittering": 8143,
      "Ġuncovered": 8144,
      "Ġswimsuit": 8145,
      "ĠSweety": 8146,
      "Ġopinion": 8147,
      "Ġopinions": 8148,
      "Ġoperation": 8149,
      "Ġguys": 8150,
      "Ġembarrassment": 8151,
      "ĠOutside": 8152,
      "Ġtimer": 8153,
      "Ġbounded": 8154,
      "ĠDebby": 8155,
      "Ġfondly": 8156,
      "Ġconfusion": 8157,
      "ĠGoodbye": 8158,
      "ĠOwl": 8159,
      "Ġinterrupted": 8160,
      "Ġpossessions": 8161,
      "Julia": 8162,
      "Mona": 8163,
      "ĠSnail": 8164,
      "Ġchilli": 8165,
      "ĠPlay": 8166,
      "Ġdefeated": 8167,
      "Ġinvolved": 8168,
      "Ġvibrant": 8169,
      "Ġmesmerized": 8170,
      "Ġsculptures": 8171,
      "Julie": 8172,
      "Whee": 8173,
      "Ġradish": 8174,
      "Ġyummiest": 8175,
      "ĠLouise": 8176,
      "Ġconstruction": 8177,
      "solutely": 8178,
      "Ġdetails": 8179,
      "Fortunately": 8180,
      "Shauna": 8181,
      "handed": 8182,
      "ynthia": 8183,
      "Ġicicle": 8184,
      "Ġtummies": 8185,
      "Ġaudience": 8186,
      "Ġsusp": 8187,
      "Ġhusband": 8188,
      "Ġgesture": 8189,
      "ĠSaturday": 8190,
      "ĠHalloween": 8191
    },
    "merges": [
      [
        "h",
        "e"
      ],
      [
        "Ġ",
        "t"
      ],
      [
        "Ġ",
        "a"
      ],
      [
        "Ġ",
        "s"
      ],
      [
        "Ġ",
        "w"
      ],
      [
        "n",
        "d"
      ],
      [
        "Ġt",
        "he"
      ],
      [
        "e",
        "d"
      ],
      [
        "i",
        "n"
      ],
      [
        "Ġa",
        "nd"
      ],
      [
        "Ġ",
        "b"
      ],
      [
        "Ġt",
        "o"
      ],
      [
        "Ġw",
        "a"
      ],
      [
        "Ġ",
        "h"
      ],
      [
        "r",
        "e"
      ],
      [
        "i",
        "t"
      ],
      [
        "Ġ",
        "f"
      ],
      [
        "o",
        "u"
      ],
      [
        "e",
        "r"
      ],
      [
        "Ġ",
        "l"
      ],
      [
        "Ġ",
        "he"
      ],
      [
        "Ġwa",
        "s"
      ],
      [
        "Ġ",
        "c"
      ],
      [
        "Ġ",
        "d"
      ],
      [
        "Ġ",
        "p"
      ],
      [
        "Ġ",
        "m"
      ],
      [
        "Ġ",
        "o"
      ],
      [
        "in",
        "g"
      ],
      [
        "o",
        "m"
      ],
      [
        "a",
        "r"
      ],
      [
        "a",
        "y"
      ],
      [
        "Ġ",
        "g"
      ],
      [
        "i",
        "s"
      ],
      [
        "T",
        "he"
      ],
      [
        "i",
        "d"
      ],
      [
        "a",
        "t"
      ],
      [
        "l",
        "l"
      ],
      [
        "e",
        "n"
      ],
      [
        "Ġs",
        "a"
      ],
      [
        "n",
        "e"
      ],
      [
        "Ġh",
        "a"
      ],
      [
        "i",
        "m"
      ],
      [
        "l",
        "e"
      ],
      [
        "Ġ",
        "S"
      ],
      [
        "a",
        "n"
      ],
      [
        "o",
        "r"
      ],
      [
        "Ġ",
        "it"
      ],
      [
        "Ġt",
        "h"
      ],
      [
        "Ġ",
        "The"
      ],
      [
        "e",
        "t"
      ],
      [
        "Ġ",
        "H"
      ],
      [
        "i",
        "l"
      ],
      [
        "o",
        "n"
      ],
      [
        "Ġhe",
        "r"
      ],
      [
        "v",
        "er"
      ],
      [
        "i",
        "r"
      ],
      [
        "Ġ",
        "in"
      ],
      [
        "Ġ",
        "e"
      ],
      [
        "ĠH",
        "e"
      ],
      [
        "Ġ",
        "n"
      ],
      [
        "o",
        "t"
      ],
      [
        "l",
        "d"
      ],
      [
        "ĠS",
        "he"
      ],
      [
        "Ġ",
        "u"
      ],
      [
        "u",
        "t"
      ],
      [
        "o",
        "w"
      ],
      [
        "Ġb",
        "e"
      ],
      [
        "c",
        "k"
      ],
      [
        "c",
        "e"
      ],
      [
        "Ġs",
        "he"
      ],
      [
        "i",
        "g"
      ],
      [
        "Ġsa",
        "id"
      ],
      [
        "Ġs",
        "t"
      ],
      [
        "Ġs",
        "o"
      ],
      [
        "o",
        "o"
      ],
      [
        "p",
        "p"
      ],
      [
        "Ġ",
        "r"
      ],
      [
        "Ġ",
        "\""
      ],
      [
        "a",
        "m"
      ],
      [
        "Ġo",
        "f"
      ],
      [
        "k",
        "e"
      ],
      [
        "Ġ",
        "y"
      ],
      [
        "v",
        "e"
      ],
      [
        "s",
        "t"
      ],
      [
        "k",
        "ed"
      ],
      [
        "it",
        "h"
      ],
      [
        "ver",
        "y"
      ],
      [
        "Ġh",
        "is"
      ],
      [
        "Ġw",
        "ith"
      ],
      [
        "Ġd",
        "ay"
      ],
      [
        "r",
        "i"
      ],
      [
        "Ġ",
        "I"
      ],
      [
        "n",
        "t"
      ],
      [
        "Ġu",
        "p"
      ],
      [
        "Ġp",
        "l"
      ],
      [
        "a",
        "d"
      ],
      [
        "Ġth",
        "at"
      ],
      [
        "Ġha",
        "d"
      ],
      [
        "Ġy",
        "ou"
      ],
      [
        "ĠThe",
        "y"
      ],
      [
        "ou",
        "ld"
      ],
      [
        "it",
        "t"
      ],
      [
        "il",
        "y"
      ],
      [
        "e",
        "l"
      ],
      [
        "en",
        "t"
      ],
      [
        "Ġ",
        "T"
      ],
      [
        "Ġo",
        "n"
      ],
      [
        "Ġf",
        "or"
      ],
      [
        "e",
        "s"
      ],
      [
        "Ġpl",
        "ay"
      ],
      [
        "ou",
        "nd"
      ],
      [
        "itt",
        "le"
      ],
      [
        "Ġthe",
        "y"
      ],
      [
        "Ġ",
        "Ċ"
      ],
      [
        "u",
        "n"
      ],
      [
        "Ġw",
        "e"
      ],
      [
        "ou",
        "t"
      ],
      [
        "m",
        "y"
      ],
      [
        "Ġ",
        "L"
      ],
      [
        "Ġl",
        "ittle"
      ],
      [
        "'",
        "s"
      ],
      [
        "l",
        "y"
      ],
      [
        "c",
        "h"
      ],
      [
        "Ġm",
        "om"
      ],
      [
        "Ġha",
        "pp"
      ],
      [
        "im",
        "e"
      ],
      [
        "he",
        "r"
      ],
      [
        "Ġthe",
        "re"
      ],
      [
        "Ġt",
        "ime"
      ],
      [
        "a",
        "ll"
      ],
      [
        "Ġ",
        "very"
      ],
      [
        "Ġs",
        "m"
      ],
      [
        "Ġw",
        "h"
      ],
      [
        "Ġs",
        "h"
      ],
      [
        "h",
        "t"
      ],
      [
        "Ġ",
        "ne"
      ],
      [
        "Ġ",
        "re"
      ],
      [
        "Ġl",
        "i"
      ],
      [
        "a",
        "l"
      ],
      [
        "om",
        "e"
      ],
      [
        "Ġwa",
        "nt"
      ],
      [
        "Ġ",
        "B"
      ],
      [
        "s",
        "e"
      ],
      [
        "a",
        "ck"
      ],
      [
        "e",
        "nd"
      ],
      [
        "Ġd",
        "o"
      ],
      [
        "Ġ",
        "k"
      ],
      [
        "Ġa",
        "s"
      ],
      [
        "O",
        "n"
      ],
      [
        "Ġhapp",
        "y"
      ],
      [
        "Ġb",
        "ig"
      ],
      [
        "Ġa",
        "n"
      ],
      [
        "Ġb",
        "ut"
      ],
      [
        "On",
        "ce"
      ],
      [
        "r",
        "a"
      ],
      [
        "O",
        "ne"
      ],
      [
        "Ġsa",
        "w"
      ],
      [
        "ri",
        "end"
      ],
      [
        "v",
        "ed"
      ],
      [
        "Ġf",
        "riend"
      ],
      [
        "Ġl",
        "oo"
      ],
      [
        "e",
        "c"
      ],
      [
        "'",
        "t"
      ],
      [
        "o",
        "re"
      ],
      [
        "ir",
        "l"
      ],
      [
        "a",
        "ke"
      ],
      [
        "u",
        "g"
      ],
      [
        "id",
        "e"
      ],
      [
        "Ġg",
        "irl"
      ],
      [
        "ĠL",
        "ily"
      ],
      [
        "t",
        "er"
      ],
      [
        "Ġ",
        "M"
      ],
      [
        "Ġb",
        "o"
      ],
      [
        "Ġ",
        "J"
      ],
      [
        "Ġe",
        "x"
      ],
      [
        "ĠI",
        "t"
      ],
      [
        "Ġwe",
        "re"
      ],
      [
        "Ġup",
        "on"
      ],
      [
        "Ġh",
        "im"
      ],
      [
        "i",
        "ll"
      ],
      [
        "r",
        "y"
      ],
      [
        "ar",
        "d"
      ],
      [
        "Ġs",
        "p"
      ],
      [
        "Ġ",
        "out"
      ],
      [
        "Ġg",
        "o"
      ],
      [
        "Ġ",
        "j"
      ],
      [
        "!",
        "\""
      ],
      [
        "Ġn",
        "ot"
      ],
      [
        "Ġl",
        "o"
      ],
      [
        ".",
        "\""
      ],
      [
        "Ġwant",
        "ed"
      ],
      [
        "f",
        "u"
      ],
      [
        "Ġc",
        "ould"
      ],
      [
        "Ġa",
        "r"
      ],
      [
        "w",
        "ay"
      ],
      [
        "he",
        "n"
      ],
      [
        "Ġto",
        "o"
      ],
      [
        "h",
        "ing"
      ],
      [
        "i",
        "nd"
      ],
      [
        "Ġs",
        "e"
      ],
      [
        "u",
        "r"
      ],
      [
        "Ã",
        "¢"
      ],
      [
        "â",
        "Ĥ"
      ],
      [
        "âĤ",
        "¬"
      ],
      [
        "Ġ",
        "is"
      ],
      [
        "ar",
        "t"
      ],
      [
        "Ġa",
        "ll"
      ],
      [
        "i",
        "c"
      ],
      [
        "a",
        "in"
      ],
      [
        "Ġ",
        "A"
      ],
      [
        "ĠT",
        "im"
      ],
      [
        "Ġa",
        "t"
      ],
      [
        "he",
        "d"
      ],
      [
        "Ġw",
        "ent"
      ],
      [
        "u",
        "m"
      ],
      [
        "il",
        "ed"
      ],
      [
        "fu",
        "l"
      ],
      [
        "ig",
        "ht"
      ],
      [
        "r",
        "om"
      ],
      [
        "Ġsm",
        "iled"
      ],
      [
        "Ġar",
        "ound"
      ],
      [
        "l",
        "p"
      ],
      [
        "Ġfriend",
        "s"
      ],
      [
        "Ġn",
        "am"
      ],
      [
        "Ġthe",
        "m"
      ],
      [
        "ou",
        "g"
      ],
      [
        "Ġhe",
        "lp"
      ],
      [
        "Ġb",
        "ack"
      ],
      [
        "oo",
        "d"
      ],
      [
        "Ġc",
        "l"
      ],
      [
        "om",
        "et"
      ],
      [
        "Ġd",
        "id"
      ],
      [
        "ar",
        "k"
      ],
      [
        "s",
        "s"
      ],
      [
        "Ġas",
        "ked"
      ],
      [
        "Ġf",
        "un"
      ],
      [
        "Ġc",
        "a"
      ],
      [
        "Ġha",
        "ve"
      ],
      [
        "?",
        "\""
      ],
      [
        "Ġs",
        "omet"
      ],
      [
        "Ġloo",
        "ked"
      ],
      [
        "Ġbo",
        "y"
      ],
      [
        "Ġc",
        "an"
      ],
      [
        "Ġst",
        "art"
      ],
      [
        "s",
        "ide"
      ],
      [
        "Ġa",
        "l"
      ],
      [
        "Ġthe",
        "ir"
      ],
      [
        "u",
        "re"
      ],
      [
        "o",
        "ne"
      ],
      [
        "Ġl",
        "e"
      ],
      [
        "el",
        "t"
      ],
      [
        "Ġf",
        "e"
      ],
      [
        "i",
        "ck"
      ],
      [
        "Ġw",
        "ould"
      ],
      [
        "g",
        "et"
      ],
      [
        "Ġnam",
        "ed"
      ],
      [
        "d",
        "d"
      ],
      [
        "Ġf",
        "elt"
      ],
      [
        "r",
        "o"
      ],
      [
        "it",
        "ed"
      ],
      [
        "re",
        "e"
      ],
      [
        "Ġex",
        "c"
      ],
      [
        "Ġ",
        "One"
      ],
      [
        "am",
        "e"
      ],
      [
        "i",
        "e"
      ],
      [
        "Ġlo",
        "ved"
      ],
      [
        "Ġn",
        "o"
      ],
      [
        "Ġsomet",
        "hing"
      ],
      [
        "k",
        "ing"
      ],
      [
        "Ġm",
        "an"
      ],
      [
        "on",
        "g"
      ],
      [
        "Ġw",
        "or"
      ],
      [
        "Ġstart",
        "ed"
      ],
      [
        "i",
        "ce"
      ],
      [
        "Ġs",
        "c"
      ],
      [
        "ir",
        "d"
      ],
      [
        "Ġa",
        "re"
      ],
      [
        "Ġli",
        "ke"
      ],
      [
        "o",
        "p"
      ],
      [
        "get",
        "her"
      ],
      [
        "Ġs",
        "ome"
      ],
      [
        "Ġb",
        "ird"
      ],
      [
        "Ġa",
        "g"
      ],
      [
        "Ġf",
        "a"
      ],
      [
        "Ġr",
        "o"
      ],
      [
        "Ġm",
        "e"
      ],
      [
        "Ġse",
        "e"
      ],
      [
        "pp",
        "ed"
      ],
      [
        "Ġ",
        "E"
      ],
      [
        "Ġ",
        "W"
      ],
      [
        "a",
        "g"
      ],
      [
        "ad",
        "e"
      ],
      [
        "Ġto",
        "gether"
      ],
      [
        "Ġa",
        "way"
      ],
      [
        "Ġexc",
        "ited"
      ],
      [
        "p",
        "l"
      ],
      [
        "ow",
        "n"
      ],
      [
        "Ġr",
        "an"
      ],
      [
        "ĠTim",
        "my"
      ],
      [
        "ou",
        "d"
      ],
      [
        "ing",
        "s"
      ],
      [
        "Ġwh",
        "at"
      ],
      [
        "Ġthe",
        "n"
      ],
      [
        "ar",
        "ed"
      ],
      [
        "Ġm",
        "u"
      ],
      [
        "all",
        "y"
      ],
      [
        "b",
        "le"
      ],
      [
        "Ġto",
        "y"
      ],
      [
        "Ġm",
        "ake"
      ],
      [
        "i",
        "f"
      ],
      [
        "Ġh",
        "ome"
      ],
      [
        "q",
        "u"
      ],
      [
        "Ġwa",
        "l"
      ],
      [
        "h",
        "at"
      ],
      [
        "Ġl",
        "a"
      ],
      [
        "Ġm",
        "ade"
      ],
      [
        "ĠB",
        "en"
      ],
      [
        "Ġf",
        "ound"
      ],
      [
        "Ġf",
        "rom"
      ],
      [
        "Ġc",
        "h"
      ],
      [
        "a",
        "s"
      ],
      [
        "e",
        "ll"
      ],
      [
        "Ġw",
        "hen"
      ],
      [
        "Ġd",
        "ec"
      ],
      [
        "Y",
        "ou"
      ],
      [
        "Ġb",
        "r"
      ],
      [
        "Ġp",
        "ark"
      ],
      [
        "Ġc",
        "o"
      ],
      [
        "Ġwh",
        "o"
      ],
      [
        "Ġag",
        "ain"
      ],
      [
        "Ġne",
        "w"
      ],
      [
        "oug",
        "ht"
      ],
      [
        "e",
        "p"
      ],
      [
        "Ġo",
        "t"
      ],
      [
        "ou",
        "s"
      ],
      [
        "Ġg",
        "et"
      ],
      [
        "ĠT",
        "om"
      ],
      [
        "Ġp",
        "ut"
      ],
      [
        "Ġe",
        "very"
      ],
      [
        "ĠB",
        "ut"
      ],
      [
        ",",
        "\""
      ],
      [
        "Ġplay",
        "ing"
      ],
      [
        "Ġo",
        "ne"
      ],
      [
        "u",
        "dd"
      ],
      [
        "Ġot",
        "her"
      ],
      [
        "Ġsa",
        "d"
      ],
      [
        "id",
        "ed"
      ],
      [
        "Ġdec",
        "ided"
      ],
      [
        "Ġo",
        "ld"
      ],
      [
        "Ġp",
        "r"
      ],
      [
        "Ġg",
        "ot"
      ],
      [
        "Ġf",
        "l"
      ],
      [
        "i",
        "le"
      ],
      [
        "n",
        "y"
      ],
      [
        "b",
        "b"
      ],
      [
        "Ġ",
        "v"
      ],
      [
        "a",
        "ve"
      ],
      [
        "Ġc",
        "ar"
      ],
      [
        "Ġh",
        "ug"
      ],
      [
        "Ġb",
        "u"
      ],
      [
        "a",
        "ch"
      ],
      [
        "Ġth",
        "ings"
      ],
      [
        "u",
        "st"
      ],
      [
        "ri",
        "ed"
      ],
      [
        "ec",
        "i"
      ],
      [
        "Ġg",
        "ood"
      ],
      [
        "Ġth",
        "an"
      ],
      [
        "ou",
        "se"
      ],
      [
        "Ġ",
        "D"
      ],
      [
        "Ġf",
        "ind"
      ],
      [
        "udd",
        "en"
      ],
      [
        "Ġs",
        "w"
      ],
      [
        "Ġd",
        "own"
      ],
      [
        "Ġbe",
        "c"
      ],
      [
        "Ġfe",
        "el"
      ],
      [
        "Ġc",
        "ame"
      ],
      [
        "eci",
        "al"
      ],
      [
        "Ġt",
        "ree"
      ],
      [
        "Ġsp",
        "ecial"
      ],
      [
        "Ġs",
        "ay"
      ],
      [
        "way",
        "s"
      ],
      [
        "Ġ",
        "ke"
      ],
      [
        "udden",
        "ly"
      ],
      [
        "Ġl",
        "ot"
      ],
      [
        "Ġal",
        "ways"
      ],
      [
        "Ġk",
        "n"
      ],
      [
        "Ġp",
        "o"
      ],
      [
        "nd",
        "er"
      ],
      [
        "Ġa",
        "b"
      ],
      [
        "an",
        "t"
      ],
      [
        "Ġb",
        "l"
      ],
      [
        "Ġk",
        "ne"
      ],
      [
        "c",
        "hed"
      ],
      [
        "Ġ",
        "F"
      ],
      [
        "Ġth",
        "ought"
      ],
      [
        "Ġin",
        "t"
      ],
      [
        "Ġsc",
        "ared"
      ],
      [
        "Ġg",
        "r"
      ],
      [
        "is",
        "t"
      ],
      [
        "it",
        "e"
      ],
      [
        "Ġt",
        "ake"
      ],
      [
        "Ġg",
        "ra"
      ],
      [
        "u",
        "e"
      ],
      [
        "g",
        "e"
      ],
      [
        "ou",
        "r"
      ],
      [
        "Ġex",
        "pl"
      ],
      [
        "Ġca",
        "re"
      ],
      [
        "Ġab",
        "out"
      ],
      [
        "Ġtoo",
        "k"
      ],
      [
        "Ġdid",
        "n"
      ],
      [
        "ĠE",
        "very"
      ],
      [
        "f",
        "e"
      ],
      [
        "is",
        "e"
      ],
      [
        "en",
        "ed"
      ],
      [
        "m",
        "a"
      ],
      [
        "re",
        "at"
      ],
      [
        "Ġla",
        "ug"
      ],
      [
        "oo",
        "k"
      ],
      [
        "Ġloo",
        "k"
      ],
      [
        "Ġd",
        "ad"
      ],
      [
        "Ġli",
        "ked"
      ],
      [
        "Ġkne",
        "w"
      ],
      [
        "Ġh",
        "o"
      ],
      [
        "f",
        "ter"
      ],
      [
        "Ġp",
        "a"
      ],
      [
        "u",
        "ck"
      ],
      [
        "o",
        "b"
      ],
      [
        "Å",
        "ĵ"
      ],
      [
        "Ġp",
        "e"
      ],
      [
        "Ġt",
        "a"
      ],
      [
        "Ġout",
        "side"
      ],
      [
        "v",
        "en"
      ],
      [
        "Ġt",
        "w"
      ],
      [
        "er",
        "s"
      ],
      [
        "i",
        "ve"
      ],
      [
        "Ġ",
        "You"
      ],
      [
        "Ġm",
        "ore"
      ],
      [
        "Ġs",
        "k"
      ],
      [
        "Ġcould",
        "n"
      ],
      [
        "ĠJ",
        "o"
      ],
      [
        "n",
        "ed"
      ],
      [
        "L",
        "ily"
      ],
      [
        "Ġc",
        "at"
      ],
      [
        "Ġ",
        "qu"
      ],
      [
        "Ġ",
        "en"
      ],
      [
        "u",
        "c"
      ],
      [
        "Ġyou",
        "r"
      ],
      [
        "Ġh",
        "ow"
      ],
      [
        "ll",
        "y"
      ],
      [
        "Ġmu",
        "ch"
      ],
      [
        "Ġdo",
        "g"
      ],
      [
        "a",
        "ce"
      ],
      [
        "Ġne",
        "ver"
      ],
      [
        "Ġs",
        "un"
      ],
      [
        "Ġm",
        "o"
      ],
      [
        "g",
        "ed"
      ],
      [
        "Ġm",
        "y"
      ],
      [
        "re",
        "t"
      ],
      [
        "ĠJ",
        "ack"
      ],
      [
        "Ġ",
        "Ã¢"
      ],
      [
        "Ġint",
        "o"
      ],
      [
        "Ġan",
        "y"
      ],
      [
        "i",
        "on"
      ],
      [
        "Ġcl",
        "o"
      ],
      [
        "Ġpr",
        "oud"
      ],
      [
        "u",
        "s"
      ],
      [
        "h",
        "n"
      ],
      [
        "Ġsh",
        "ow"
      ],
      [
        "Ġo",
        "ver"
      ],
      [
        "Ġmom",
        "my"
      ],
      [
        "b",
        "y"
      ],
      [
        "Ġth",
        "is"
      ],
      [
        "oug",
        "h"
      ],
      [
        "Ġ",
        "if"
      ],
      [
        "ar",
        "a"
      ],
      [
        "Ġkn",
        "ow"
      ],
      [
        "ĠM",
        "om"
      ],
      [
        "is",
        "h"
      ],
[...]
